<unk>	0
<s>	0
</s>	0
▁the	-3.34015
.	-3.36541
▁to	-3.85257
▁a	-3.88944
s	-3.96986
▁of	-4.05863
▁in	-4.05908
▁and	-4.4045
-	-4.42299
▁on	-4.5929
▁for	-4.71273
▁#	-4.80223
39	-4.85074
▁-	-4.95031
▁(	-4.95632
)	-4.98134
▁s	-5.0622
ing	-5.08288
'	-5.24393
▁that	-5.31031
ed	-5.3485
▁with	-5.35885
▁at	-5.42713
▁as	-5.49191
▁is	-5.53742
▁its	-5.5701
▁new	-5.57783
▁	-5.57944
▁by	-5.60745
▁it	-5.61431
▁said	-5.63941
▁has	-5.69617
▁from	-5.76978
▁an	-5.80578
&	-5.82544
:	-5.83726
reuters	-5.88314
▁be	-5.92915
▁his	-5.94393
▁will	-5.95616
▁after	-5.97019
▁was	-6.02408
lt	-6.03545
gt	-6.06067
▁us	-6.09515
▁over	-6.17824
▁have	-6.23053
ap	-6.23333
a	-6.29021
▁their	-6.29462
▁up	-6.30078
d	-6.34016
▁two	-6.34515
▁u	-6.35624
▁first	-6.3664
▁are	-6.36651
▁quot	-6.36893
▁he	-6.39115
▁&	-6.39787
/	-6.40051
▁but	-6.4312
▁more	-6.43699
n	-6.4606
▁world	-6.48209
=	-6.53028
▁this	-6.54708
▁one	-6.56613
▁out	-6.60666
▁company	-6.61245
▁monday	-6.61819
▁wednesday	-6.62994
▁not	-6.63121
▁--	-6.63281
▁tuesday	-6.63888
ly	-6.64011
▁oil	-6.64252
▁thursday	-6.65537
▁inc	-6.71435
▁against	-6.71694
▁friday	-6.72156
y	-6.73147
▁year	-6.7465
▁into	-6.75362
▁who	-6.7588
▁last	-6.7605
▁/	-6.76482
▁about	-6.79183
▁york	-6.80269
▁iraq	-6.80608
▁than	-6.81293
▁no	-6.81998
b	-6.82132
▁they	-6.82179
▁yesterday	-6.83816
t	-6.86186
▁three	-6.86948
▁president	-6.87334
▁were	-6.88696
▁ap	-6.9027
▁million	-6.90737
▁microsoft	-6.91806
e	-6.93684
▁been	-6.93786
▁week	-6.95056
er	-6.96592
▁game	-6.97393
▁had	-6.97433
▁says	-6.9815
▁corp	-6.99235
com	-6.99836
▁united	-7.02773
▁when	-7.02996
▁sunday	-7.04887
▁government	-7.05841
▁time	-7.06366
▁prices	-7.06541
▁could	-7.06879
▁would	-7.07284
▁group	-7.07421
the	-7.07711
▁t	-7.10106
▁today	-7.1021
▁security	-7.10221
▁people	-7.10298
▁back	-7.10395
o	-7.11556
▁may	-7.11981
▁years	-7.12586
▁second	-7.12729
▁which	-7.12803
▁percent	-7.15167
▁all	-7.15412
▁b	-7.15901
▁team	-7.15935
▁win	-7.16111
▁software	-7.16549
▁next	-7.16827
▁...	-7.17475
▁off	-7.17638
▁lead	-7.18328
▁season	-7.21058
▁third	-7.21575
m	-7.21963
▁or	-7.22482
▁saturday	-7.244
▁night	-7.24576
▁internet	-7.25595
▁can	-7.26632
▁china	-7.28649
▁state	-7.28663
▁deal	-7.28843
▁top	-7.2891
▁market	-7.29295
▁open	-7.29673
▁un	-7.29704
▁minister	-7.31054
▁sales	-7.32906
▁some	-7.33344
▁high	-7.3379
▁down	-7.34235
▁four	-7.34555
▁bush	-7.35042
fullquote	-7.36051
▁record	-7.36731
▁day	-7.3727
▁most	-7.38292
▁billion	-7.38641
▁business	-7.39687
▁reuters	-7.40888
▁international	-7.41262
▁announced	-7.41315
▁killed	-7.44173
▁end	-7.44253
▁washington	-7.44849
▁former	-7.45043
▁profit	-7.45167
▁court	-7.45314
▁report	-7.45426
year	-7.45698
▁home	-7.46601
▁victory	-7.47851
▁co	-7.48078
▁city	-7.48667
▁officials	-7.49949
▁service	-7.50127
▁other	-7.51063
▁set	-7.51091
▁d	-7.51705
▁2004	-7.52171
▁if	-7.52229
▁plans	-7.52298
▁news	-7.52567
▁stocks	-7.5263
afp	-7.52711
▁european	-7.53609
▁chief	-7.53811
▁you	-7.54435
▁before	-7.54839
▁states	-7.55288
▁al	-7.55589
▁h	-7.56523
▁technology	-7.57405
▁league	-7.57518
▁search	-7.57713
▁target	-7.57824
...	-7.58048
▁computer	-7.58414
▁cup	-7.58508
▁san	-7.59586
▁country	-7.5979
▁american	-7.59792
▁talks	-7.59895
▁just	-7.60045
▁2	-7.61942
th	-7.62295
▁red	-7.62405
▁take	-7.62756
▁national	-7.62774
▁online	-7.63672
▁now	-7.63899
▁five	-7.64567
▁what	-7.64846
▁space	-7.65567
▁bank	-7.65569
▁reported	-7.66107
▁network	-7.67062
▁make	-7.6722
▁won	-7.67261
▁i	-7.67644
▁major	-7.67675
▁prime	-7.68743
▁10	-7.68942
▁india	-7.6919
▁web	-7.69223
▁british	-7.69839
▁federal	-7.69982
▁japan	-7.70059
▁least	-7.70674
▁south	-7.71374
▁google	-7.71708
▁help	-7.71869
▁final	-7.7224
▁iraqi	-7.72446
▁get	-7.72476
▁research	-7.72764
▁another	-7.72924
▁police	-7.73104
▁bid	-7.7314
▁shares	-7.73286
▁long	-7.7338
▁month	-7.73708
▁leader	-7.73718
▁according	-7.73844
▁music	-7.73961
▁maker	-7.74157
▁hit	-7.74546
▁under	-7.74707
▁plan	-7.74724
▁made	-7.74878
▁e	-7.75478
▁companies	-7.75549
▁war	-7.76329
▁big	-7.76585
▁while	-7.7687
▁during	-7.77337
▁say	-7.7736
▁coach	-7.77928
▁ibm	-7.77945
ticker	-7.7799
▁mobile	-7.78944
▁quarter	-7.79033
▁between	-7.79133
▁still	-7.79136
p	-7.79171
▁election	-7.79399
▁series	-7.79647
▁largest	-7.79707
▁industry	-7.80376
▁games	-7.8103
▁expected	-7.82158
▁giant	-7.82682
▁her	-7.83342
▁there	-7.8336
▁p	-7.83391
://	-7.83515
▁baghdad	-7.8352
▁so	-7.8371
▁1	-7.84305
▁way	-7.84425
▁3	-7.85626
▁http	-7.86085
▁north	-7.86111
▁since	-7.86118
▁growth	-7.8636
▁cut	-7.86625
www	-7.86757
▁through	-7.87117
ref	-7.8749
▁data	-7.87591
▁trade	-7.87894
▁early	-7.87914
▁london	-7.87952
▁system	-7.87961
▁start	-7.88075
▁gold	-7.88089
2	-7.88665
▁head	-7.8869
▁wireless	-7.89501
c	-7.89971
▁john	-7.90254
▁buy	-7.90314
▁nuclear	-7.90399
▁test	-7.90479
▁services	-7.90511
▁higher	-7.90562
▁them	-7.90563
▁union	-7.9087
▁pay	-7.90893
▁left	-7.90961
info	-7.9136
▁six	-7.91406
▁dollar	-7.91422
▁move	-7.9212
▁military	-7.92412
▁stock	-7.92649
▁go	-7.92691
▁earnings	-7.92932
▁phone	-7.93304
l	-7.93841
on	-7.93985
es	-7.95541
▁press	-7.95659
▁air	-7.95771
▁him	-7.95825
▁man	-7.96026
▁attack	-7.96045
▁official	-7.96575
▁australia	-7.96636
▁beat	-7.9702
▁loss	-7.98516
▁amp	-7.9865
▁like	-7.98754
▁being	-7.98765
▁palestinian	-7.98857
▁players	-7.99209
in	-7.99302
re	-7.99764
▁firm	-7.99843
▁car	-7.99892
▁agreed	-8.00301
▁sox	-8.00409
▁west	-8.00424
investor	-8.0068
cause	-8.00998
▁near	-8.01056
▁play	-8.01299
▁apple	-8.01337
▁face	-8.01884
▁'	-8.02044
▁only	-8.02322
▁months	-8.02655
stocks	-8.03155
▁olympic	-8.037
▁windows	-8.03725
▁free	-8.04249
▁power	-8.04274
▁rose	-8.04325
▁price	-8.04349
▁oracle	-8.04352
▁latest	-8.04402
▁global	-8.04426
quick	-8.04449
spx	-8.04455
▁many	-8.04632
▁days	-8.0469
▁found	-8.05047
▁rise	-8.0515
▁general	-8.05213
▁part	-8.05471
▁troops	-8.05569
▁executive	-8.05597
al	-8.05928
▁israeli	-8.06431
▁gaza	-8.06441
▁even	-8.07617
▁intel	-8.07737
▁again	-8.07775
▁do	-8.07951
▁st	-8.08002
▁russia	-8.08207
i	-8.08282
▁run	-8.08315
▁drug	-8.08642
▁strong	-8.08665
▁football	-8.09958
▁update	-8.10113
▁re	-8.10347
▁including	-8.10359
r	-8.10696
▁england	-8.10964
▁jobs	-8.11005
quarter	-8.11016
▁iran	-8.11193
▁users	-8.11205
▁key	-8.11299
▁launch	-8.11424
▁past	-8.11749
▁work	-8.12456
▁economy	-8.12467
▁released	-8.12494
▁economic	-8.12528
espite	-8.12704
▁biggest	-8.13206
▁boston	-8.13434
▁ahead	-8.13515
▁europe	-8.1352
based	-8.13523
▁ago	-8.13543
▁release	-8.13705
▁points	-8.13791
▁how	-8.13857
▁much	-8.14078
▁peace	-8.14372
▁street	-8.14549
to	-8.14864
▁offer	-8.15
▁reports	-8.15083
▁forces	-8.15456
▁video	-8.15833
▁half	-8.1603
▁investors	-8.16083
▁keep	-8.16732
▁russian	-8.16745
g	-8.16789
▁support	-8.16794
▁peoplesoft	-8.1734
▁your	-8.17438
ers	-8.17716
▁use	-8.17924
▁eu	-8.18355
▁public	-8.18748
▁case	-8.18802
▁bomb	-8.19281
▁athens	-8.19287
▁seven	-8.19559
▁held	-8.20024
▁lower	-8.2032
▁sun	-8.20581
▁title	-8.20692
▁close	-8.20878
▁fourth	-8.215
▁11	-8.21649
▁right	-8.21726
▁where	-8.21906
3	-8.22075
▁presidential	-8.22249
▁20	-8.22624
▁round	-8.23041
▁foreign	-8.23251
▁should	-8.23353
▁media	-8.23441
▁share	-8.23544
▁pakistan	-8.23565
▁nation	-8.23964
▁uk	-8.24042
▁nearly	-8.24168
▁financial	-8.2434
▁fall	-8.24689
▁contract	-8.24957
▁men	-8.25119
▁america	-8.25953
an	-8.26052
▁workers	-8.26311
▁championship	-8.26381
▁house	-8.2673
▁per	-8.26863
▁boost	-8.26918
▁afp	-8.27016
▁wall	-8.27202
▁put	-8.2722
▁israel	-8.27705
us	-8.27814
▁low	-8.27843
▁bill	-8.27886
▁linux	-8.27944
old	-8.27958
▁kill	-8.28449
▁nations	-8.28461
▁attacks	-8.28523
▁number	-8.28659
▁agency	-8.28732
▁good	-8.28784
▁francisco	-8.28908
▁digital	-8.29054
▁we	-8.29236
▁systems	-8.2933
▁kerry	-8.29341
▁anti	-8.29481
36	-8.30093
▁wins	-8.30195
f	-8.30399
▁best	-8.30403
▁weeks	-8.30531
▁french	-8.30665
▁tokyo	-8.30764
▁life	-8.30852
▁player	-8.3101
▁fell	-8.31096
▁4	-8.31262
▁late	-8.31417
▁nasa	-8.31437
▁12	-8.31746
▁place	-8.32015
▁return	-8.32071
▁death	-8.32198
▁around	-8.3242
▁australian	-8.33149
k	-8.33386
▁job	-8.33483
▁rival	-8.33703
▁took	-8.3372
▁called	-8.33724
▁capital	-8.33886
▁also	-8.33921
▁campaign	-8.34172
▁september	-8.34589
▁program	-8.34753
▁hurricane	-8.34849
▁killing	-8.34896
▁consumer	-8.34928
▁center	-8.35049
▁arafat	-8.35178
▁demand	-8.35182
▁commission	-8.35253
▁october	-8.3526
▁leaders	-8.35278
▁n	-8.35575
up	-8.35596
▁florida	-8.35777
▁following	-8.3587
▁line	-8.35992
▁darfur	-8.3622
▁version	-8.36361
▁2005	-8.36692
▁any	-8.36878
▁race	-8.37098
▁army	-8.37252
▁korea	-8.37545
▁show	-8.37627
▁agreement	-8.37676
▁vote	-8.38094
▁future	-8.38301
▁here	-8.38449
man	-8.38503
▁crude	-8.38598
9	-8.38609
▁trial	-8.38787
▁charges	-8.39215
▁net	-8.3923
▁chicago	-8.39296
▁site	-8.39507
▁give	-8.39647
▁used	-8.39666
▁might	-8.39736
▁well	-8.39921
▁strike	-8.40055
▁france	-8.40133
▁post	-8.40148
▁both	-8.40324
▁board	-8.40372
6	-8.40442
sports	-8.40521
▁region	-8.40782
▁party	-8.40958
▁yankees	-8.41283
▁scientists	-8.41423
▁battle	-8.41521
▁japanese	-8.41556
▁star	-8.41621
▁chip	-8.41661
▁dead	-8.42211
5	-8.42501
▁women	-8.42899
▁f	-8.43183
▁decision	-8.43672
▁manager	-8.43677
▁products	-8.43816
▁conference	-8.44279
▁school	-8.44377
▁defense	-8.44406
▁political	-8.44685
ther	-8.45017
▁pc	-8.45223
▁she	-8.45342
▁office	-8.45399
▁study	-8.45545
▁results	-8.45735
▁customers	-8.45852
▁sell	-8.45932
▁hostage	-8.46132
▁meeting	-8.46186
▁britain	-8.46269
▁little	-8.46412
▁away	-8.46613
▁match	-8.47206
▁judge	-8.47291
▁energy	-8.4742
▁several	-8.47674
▁eight	-8.47746
▁seek	-8.4792
▁southern	-8.47922
▁sudan	-8.48005
▁without	-8.48117
▁champion	-8.48325
▁northern	-8.48604
▁reach	-8.48868
▁management	-8.48871
▁november	-8.48949
▁fight	-8.49296
▁costs	-8.4941
▁real	-8.49587
▁interest	-8.49644
7	-8.49689
▁due	-8.49813
▁18	-8.50012
▁east	-8.50105
▁sony	-8.50115
▁department	-8.5031
▁militants	-8.50395
▁health	-8.50434
▁recent	-8.50528
▁g	-8.50551
▁field	-8.50642
▁central	-8.50835
▁california	-8.5103
▁force	-8.51047
▁tax	-8.51252
▁few	-8.51353
▁straight	-8.51355
▁15	-8.51709
▁de	-8.52111
▁profile	-8.52375
▁such	-8.5243
▁quarterly	-8.5268
▁grand	-8.52694
▁champions	-8.52783
▁baseball	-8.52865
▁gets	-8.53246
▁elections	-8.53266
▁mark	-8.53538
▁making	-8.53544
▁told	-8.53676
1	-8.5373
▁takes	-8.53811
▁canada	-8.5412
▁whe	-8.54243
▁hand	-8.54356
▁19	-8.54527
▁fuel	-8.54561
▁cuts	-8.54571
▁own	-8.54649
▁fans	-8.54783
▁better	-8.54822
▁hopes	-8.5489
▁increase	-8.55222
▁:	-8.55279
▁o	-8.55788
▁look	-8.5589
▁club	-8.56033
▁claims	-8.56219
▁hard	-8.56247
▁ceo	-8.56317
▁tech	-8.56367
▁canadian	-8.56418
▁unit	-8.5686
▁amid	-8.56925
▁become	-8.5707
time	-8.5714
▁likely	-8.57157
▁human	-8.57181
▁tv	-8.57224
▁scored	-8.57357
▁across	-8.57819
▁quote	-8.57907
▁running	-8.57985
▁source	-8.58033
▁winning	-8.58079
▁angeles	-8.58604
▁violence	-8.58792
en	-8.5882
▁weekend	-8.59408
▁taking	-8.5941
▁launched	-8.5946
▁lost	-8.5946
▁university	-8.59547
mail	-8.59577
▁design	-8.59587
▁history	-8.59836
▁small	-8.59837
▁visit	-8.59937
▁los	-8.59997
▁aid	-8.60055
▁saying	-8.60198
▁michael	-8.61005
▁giants	-8.61061
▁chairman	-8.61471
▁williams	-8.61601
▁server	-8.61779
▁cost	-8.61799
▁rates	-8.61877
▁texas	-8.62052
▁control	-8.62089
▁come	-8.62136
▁fire	-8.62171
▁change	-8.62386
▁call	-8.62515
▁rate	-8.62532
▁shot	-8.62535
▁action	-8.62656
▁desktop	-8.62892
▁7	-8.62917
▁join	-8.6293
▁coast	-8.63315
▁among	-8.63416
▁chinese	-8.63421
▁cash	-8.63514
▁stores	-8.63674
▁same	-8.63776
▁14	-8.63794
▁hold	-8.63958
▁drop	-8.64105
▁toward	-8.64216
▁5	-8.64299
▁13	-8.64428
▁ipod	-8.64521
▁using	-8.64886
▁trading	-8.65017
▁meet	-8.65072
▁houston	-8.65117
▁germany	-8.65128
▁law	-8.65271
▁push	-8.65391
▁information	-8.65409
▁old	-8.65657
▁accused	-8.6572
▁storm	-8.6573
▁white	-8.65818
▁w	-8.65853
day	-8.66177
▁behind	-8.66215
▁30	-8.66361
▁rebels	-8.66445
▁august	-8.6646
▁see	-8.66485
▁possible	-8.66513
▁german	-8.66518
▁afghanistan	-8.66519
▁senior	-8.66621
▁secretary	-8.6663
▁exchange	-8.66679
▁led	-8.66822
▁seen	-8.66902
▁17	-8.66996
se	-8.67021
▁cell	-8.67171
▁morning	-8.6724
▁revenue	-8.67285
▁did	-8.67388
▁injured	-8.67557
▁less	-8.67638
▁q	-8.67656
▁file	-8.6766
▁hits	-8.6769
▁gas	-8.67965
▁bring	-8.67976
▁16	-8.68003
h	-8.68009
▁radio	-8.68014
▁operating	-8.68051
▁access	-8.68353
▁oct	-8.68381
▁fund	-8.68436
▁communications	-8.68562
▁going	-8.68584
▁euro	-8.68593
▁barrel	-8.68666
▁short	-8.69032
ic	-8.69154
▁soldiers	-8.69205
▁times	-8.69275
co	-8.69405
▁warned	-8.69504
▁raise	-8.69517
▁phones	-8.69692
▁bankruptcy	-8.69717
▁yahoo	-8.69942
▁tour	-8.69982
▁forecast	-8.70121
▁far	-8.70147
▁almost	-8.70357
▁rally	-8.70365
▁full	-8.70538
▁reserve	-8.70609
▁step	-8.71048
▁nine	-8.71105
▁nov	-8.7142
▁calls	-8.71664
▁allow	-8.71737
▁takeover	-8.71753
▁stadium	-8.72053
▁sports	-8.7226
▁medal	-8.72309
▁indian	-8.72362
▁ready	-8.72529
▁outlook	-8.72814
▁makes	-8.72922
▁division	-8.72977
▁green	-8.73142
▁airlines	-8.73226
▁got	-8.73251
▁thousands	-8.73402
▁too	-8.73408
▁large	-8.7342
▁nfl	-8.73464
▁showed	-8.73596
▁local	-8.73901
▁sale	-8.73956
▁posted	-8.74018
▁must	-8.74028
▁profits	-8.74082
▁let	-8.74089
▁claim	-8.7437
▁find	-8.74384
▁engine	-8.74425
▁sign	-8.7455
▁money	-8.74626
▁production	-8.74686
▁need	-8.74805
▁television	-8.74883
▁those	-8.74887
▁africa	-8.74963
▁afghan	-8.74997
▁yet	-8.75006
▁paris	-8.75186
able	-8.75249
▁stake	-8.75327
▁jones	-8.75464
▁offering	-8.75675
▁agree	-8.76039
▁100	-8.76645
▁begin	-8.76701
▁c	-8.76757
▁stop	-8.76886
▁alleged	-8.76959
▁soon	-8.77323
▁ever	-8.7735
▁came	-8.77522
▁blue	-8.77657
▁signed	-8.77771
▁association	-8.77918
▁probe	-8.7816
▁store	-8.78185
▁station	-8.78339
▁wants	-8.78345
▁legal	-8.78826
▁opposition	-8.78954
▁product	-8.79472
ve	-8.79518
▁black	-8.79579
▁blair	-8.79642
▁corporate	-8.79761
▁david	-8.79777
▁rebel	-8.79837
▁helped	-8.79997
▁m	-8.80035
▁spain	-8.80129
▁began	-8.80253
▁focus	-8.8034
▁personal	-8.80377
▁career	-8.8042
▁earlier	-8.80831
▁threat	-8.80995
▁25	-8.81023
w	-8.81038
▁ltd	-8.81172
▁african	-8.81561
▁concerns	-8.8161
▁opening	-8.8177
ntil	-8.8178
▁toronto	-8.8178
j	-8.82001
▁heart	-8.82069
▁list	-8.82076
▁died	-8.8213
▁don	-8.82214
▁council	-8.82226
▁point	-8.82298
▁airline	-8.82468
▁investment	-8.82609
▁gains	-8.82818
▁administration	-8.83304
▁insurance	-8.8331
▁olympics	-8.83394
▁countries	-8.83423
▁performance	-8.83625
▁already	-8.84028
▁food	-8.84132
▁once	-8.84223
▁markets	-8.84234
▁competition	-8.84269
▁sept	-8.84422
▁main	-8.84445
▁ban	-8.84596
▁ex	-8.84609
▁supply	-8.84647
new	-8.84679
▁efforts	-8.84729
▁continue	-8.84872
151	-8.84896
▁outside	-8.84923
▁holiday	-8.8495
▁arrested	-8.85003
▁j	-8.85247
or	-8.85383
▁pm	-8.85476
▁pro	-8.85504
▁terror	-8.85539
▁great	-8.85749
▁members	-8.86094
▁spending	-8.86096
▁flight	-8.86106
▁ended	-8.86219
▁trying	-8.86252
▁western	-8.86343
est	-8.86607
▁analysts	-8.87078
▁within	-8.87114
it	-8.87295
▁defeat	-8.87303
▁r	-8.87603
▁growing	-8.87649
▁add	-8.87713
▁airways	-8.87729
▁weapons	-8.87827
▁family	-8.8786
▁retail	-8.87988
▁madrid	-8.88242
▁charged	-8.88285
▁networks	-8.88376
▁sharon	-8.88486
▁rules	-8.88578
update	-8.88614
▁park	-8.88652
▁6	-8.88772
▁bowl	-8.88785
▁americans	-8.88862
▁bay	-8.88943
▁drive	-8.88968
▁blast	-8.89044
▁pressure	-8.8922
▁hours	-8.89263
▁side	-8.89346
▁pre	-8.8958
▁survey	-8.89668
▁9	-8.89874
▁effort	-8.89917
▁extend	-8.89926
▁24	-8.89947
▁george	-8.90021
▁development	-8.90588
▁looking	-8.90658
▁enough	-8.90662
▁crisis	-8.90664
▁gave	-8.90674
▁miami	-8.90687
▁fighting	-8.90854
▁ruling	-8.90938
▁nba	-8.91072
▁authorities	-8.91315
▁paul	-8.92038
▁asia	-8.92105
▁suicide	-8.92232
▁finally	-8.92399
▁starting	-8.92416
▁quarterback	-8.92464
▁charge	-8.9253
▁retailer	-8.92548
▁popular	-8.92885
▁children	-8.92889
▁italian	-8.93127
coming	-8.93133
▁each	-8.93159
▁injury	-8.93188
▁yards	-8.93246
▁reached	-8.93363
▁coming	-8.93496
▁policy	-8.93743
▁21	-8.93773
▁labor	-8.93831
▁computers	-8.9404
▁beijing	-8.94241
▁8	-8.94556
▁others	-8.94734
▁dell	-8.94747
x	-8.94988
▁fears	-8.95057
▁taken	-8.95074
▁rights	-8.95181
▁college	-8.95347
mart	-8.9541
▁aimed	-8.95451
▁offers	-8.95493
▁x	-8.95541
le	-8.95617
▁arsenal	-8.9562
▁attempt	-8.95791
▁failed	-8.95943
▁devices	-8.95972
▁consumers	-8.96177
▁hope	-8.96378
▁further	-8.96391
▁risk	-8.96455
▁want	-8.96571
▁ivan	-8.9662
▁seattle	-8.96688
▁sees	-8.97026
ive	-8.97228
▁continued	-8.97277
▁name	-8.97369
▁goal	-8.97432
▁turn	-8.97585
▁operations	-8.9765
▁yukos	-8.9777
▁executives	-8.97785
▁teams	-8.97791
▁yass	-8.97888
▁guard	-8.97956
4	-8.98035
▁basketball	-8.98048
▁double	-8.98071
▁electronics	-8.98108
▁private	-8.98201
▁problems	-8.98333
▁stay	-8.98352
getting	-8.98526
fi	-8.98533
▁poll	-8.98613
and	-8.9863
▁water	-8.98844
▁fraud	-8.99039
z	-8.9904
▁cisco	-8.99046
▁appeal	-8.99257
▁staff	-8.99308
▁soccer	-8.9945
month	-8.9979
▁warning	-8.99941
▁davis	-9.00019
▁rising	-9.00037
▁leave	-9.00123
▁merger	-9.0014
▁working	-9.00228
▁powerful	-9.00332
cp	-9.00468
▁winter	-9.00494
▁shows	-9.00517
▁challenge	-9.00604
▁missing	-9.00609
▁asian	-9.00631
▁raised	-9.00642
▁fresh	-9.00703
st	-9.00775
q	-9.00812
▁mission	-9.00869
▁track	-9.00871
▁potential	-9.00875
▁size	-9.00895
▁calif	-9.0102
▁debt	-9.01143
▁above	-9.01306
led	-9.0154
▁researchers	-9.01551
▁suspected	-9.01625
▁break	-9.01671
▁filed	-9.0172
▁never	-9.01895
▁ground	-9.01926
▁issue	-9.01956
▁send	-9.02098
▁k	-9.02341
▁earth	-9.02342
▁mac	-9.02467
▁chance	-9.02776
run	-9.02864
▁investigation	-9.0291
▁muslim	-9.02928
▁satellite	-9.03061
▁create	-9.03295
▁role	-9.03348
▁acquire	-9.03498
▁rivals	-9.03642
▁selling	-9.03763
▁annual	-9.03809
▁build	-9.04112
▁young	-9.0416
▁hospital	-9.04551
▁try	-9.04573
game	-9.04609
▁atlanta	-9.04691
▁cricket	-9.04949
▁provide	-9.04961
▁worth	-9.04978
▁town	-9.051
▁lawsuit	-9.05126
▁businesses	-9.05314
▁order	-9.05315
▁miss	-9.05483
ion	-9.05521
▁signs	-9.0574
▁fired	-9.05873
▁went	-9.05941
▁named	-9.05986
▁chips	-9.05987
▁expectations	-9.06115
▁pull	-9.06143
▁auto	-9.0618
▁planned	-9.06198
▁island	-9.06234
▁lift	-9.0629
▁storage	-9.0649
ton	-9.06503
▁sold	-9.06509
▁palestinians	-9.06551
▁express	-9.06604
▁every	-9.06633
▁xp	-9.07294
▁prison	-9.07576
▁firms	-9.07602
▁officer	-9.07706
▁moscow	-9.07735
v	-9.07893
▁mo	-9.07944
▁issues	-9.08011
▁strip	-9.08102
▁wal	-9.08176
▁area	-9.08299
▁debate	-9.08351
▁rest	-9.08422
▁faces	-9.0853
▁clear	-9.0859
▁available	-9.08778
▁manchester	-9.08849
▁code	-9.08894
▁launches	-9.09031
▁sent	-9.09335
▁finance	-9.09851
▁securities	-9.09874
▁militant	-9.10199
▁credit	-9.10494
▁democratic	-9.10573
▁edge	-9.10599
el	-9.10624
▁singh	-9.10664
▁browser	-9.1083
▁delta	-9.1084
▁moon	-9.10912
▁enter	-9.11136
▁brown	-9.1116
▁prize	-9.11303
▁detroit	-9.11305
▁nokia	-9.11313
▁regulators	-9.11418
▁najaf	-9.11456
▁ryder	-9.11457
▁sprint	-9.11692
▁closer	-9.11706
▁losses	-9.11887
▁experts	-9.12031
▁astros	-9.12093
at	-9.12114
▁dollars	-9.12141
▁spam	-9.12168
▁hundreds	-9.12263
▁captain	-9.12424
▁italy	-9.12436
▁does	-9.12487
washington	-9.12516
▁approved	-9.12563
▁employees	-9.12587
▁cent	-9.12623
▁enterprise	-9.12633
▁project	-9.12727
▁medical	-9.12741
▁process	-9.12832
▁boeing	-9.12908
▁sites	-9.12925
▁body	-9.13074
▁card	-9.13077
▁single	-9.13132
▁la	-9.13176
▁23	-9.13216
▁speed	-9.13265
▁asked	-9.13356
▁middle	-9.13383
▁johnson	-9.13407
▁unveil	-9.13419
▁50	-9.13434
▁rocket	-9.13464
▁current	-9.13581
▁road	-9.13602
less	-9.13621
▁review	-9.13728
▁known	-9.13766
u	-9.14059
▁safety	-9.14206
▁islamic	-9.14209
▁december	-9.14386
▁watch	-9.14549
▁light	-9.1455
▁tournament	-9.14598
▁congress	-9.14679
▁color	-9.14715
▁think	-9.14756
▁mid	-9.14783
▁host	-9.14837
▁unveiled	-9.14843
▁woods	-9.14844
▁louis	-9.14863
▁terrorism	-9.14931
▁bad	-9.14996
▁fallujah	-9.15051
▁dvd	-9.15178
▁given	-9.15353
▁tony	-9.15362
▁ireland	-9.15368
▁decided	-9.15528
▁urged	-9.15557
▁looks	-9.15619
▁travel	-9.15664
▁include	-9.15676
▁special	-9.15715
▁settle	-9.15743
▁holding	-9.15817
post	-9.15831
▁confirmed	-9.15975
▁offensive	-9.16016
▁philadelphia	-9.16032
▁singapore	-9.16053
▁runs	-9.16056
▁brazil	-9.16188
▁golf	-9.16562
▁later	-9.1664
▁drugs	-9.16652
▁building	-9.16858
▁technologies	-9.16867
▁camp	-9.16976
end	-9.17078
▁goes	-9.17149
▁total	-9.17422
▁forward	-9.17525
▁taiwan	-9.17545
▁dutch	-9.17702
▁putin	-9.17786
▁event	-9.17908
▁lines	-9.17911
▁disney	-9.18218
▁giving	-9.18219
▁average	-9.18245
▁debut	-9.18302
▁vs	-9.18316
▁22	-9.18393
▁fifth	-9.18562
▁row	-9.18717
▁commercial	-9.18721
▁streak	-9.18721
▁applications	-9.18775
▁hp	-9.19075
▁gain	-9.19167
▁position	-9.19504
▁success	-9.19545
▁warns	-9.1979
▁pick	-9.19802
▁along	-9.19838
source	-9.19897
▁amd	-9.20317
▁our	-9.2038
▁plane	-9.20432
▁hostages	-9.20516
▁equipment	-9.20636
▁woman	-9.20665
▁losing	-9.20718
canadian	-9.2077
▁added	-9.20868
▁kidnapped	-9.20977
▁accounting	-9.21116
▁turned	-9.21226
▁director	-9.21259
▁broadband	-9.2133
ei	-9.21453
▁save	-9.21478
▁justice	-9.21508
▁increased	-9.21668
▁level	-9.2168
▁summer	-9.21695
▁comes	-9.21774
▁flu	-9.21816
▁mike	-9.2187
bn	-9.21945
▁wi	-9.22084
▁jets	-9.22202
▁know	-9.22219
▁course	-9.22224
▁front	-9.22224
▁cleric	-9.22258
▁27	-9.22314
▁suffer	-9.22488
▁bonds	-9.22511
▁remain	-9.22611
▁claimed	-9.22979
▁2003	-9.22993
▁crash	-9.23034
▁tough	-9.23046
▁spokesman	-9.231
▁26	-9.23247
▁hurt	-9.23262
▁insurgents	-9.23267
▁evidence	-9.23279
▁moved	-9.23397
▁dec	-9.23411
▁decline	-9.23427
▁greece	-9.23463
▁wounded	-9.23468
▁aug	-9.23509
▁reject	-9.23512
▁pace	-9.23606
▁2006	-9.23673
▁standard	-9.23766
▁avoid	-9.23845
▁airport	-9.23916
▁my	-9.24025
▁indonesia	-9.24028
▁rises	-9.24047
is	-9.24108
8	-9.2417
▁playing	-9.24324
net	-9.24329
▁groups	-9.24357
▁pilots	-9.2436
ies	-9.24391
▁flat	-9.2441
▁why	-9.2473
having	-9.24761
off	-9.24811
▁fast	-9.24833
▁changes	-9.24835
▁touchdown	-9.24843
▁rock	-9.24894
▁slow	-9.25097
ll	-9.2515
▁steve	-9.25195
▁met	-9.25423
▁content	-9.25449
▁based	-9.25496
▁minnesota	-9.25646
▁received	-9.25711
▁though	-9.25847
▁draw	-9.25897
▁parliament	-9.26116
▁consider	-9.26192
▁very	-9.26233
▁rain	-9.26367
▁jump	-9.26507
▁didn	-9.26559
▁suspended	-9.2683
▁huge	-9.26836
▁term	-9.27258
▁dispute	-9.27326
▁posts	-9.27344
▁plant	-9.27401
▁doesn	-9.27527
0	-9.27662
▁tennis	-9.27681
▁protection	-9.27699
ar	-9.27775
▁border	-9.27793
▁july	-9.27888
▁settlement	-9.2794
▁virginia	-9.27956
▁suit	-9.27987
▁guilty	-9.28059
▁sources	-9.28099
▁deficit	-9.28233
▁explosion	-9.28239
▁talk	-9.28301
▁stage	-9.28371
▁voters	-9.28548
▁kashmir	-9.28616
▁acquisition	-9.28619
▁device	-9.28834
▁gives	-9.28862
▁opened	-9.28885
▁advanced	-9.29011
▁confidence	-9.29018
▁sets	-9.29163
▁supreme	-9.2919
▁funds	-9.2923
cbs	-9.2924
▁seeking	-9.29261
▁march	-9.29372
▁turkey	-9.29401
▁remains	-9.29493
▁scandal	-9.29504
type	-9.29574
▁arm	-9.29634
▁result	-9.29693
▁toll	-9.29705
▁heat	-9.29746
ie	-9.29822
▁ca	-9.29877
▁form	-9.29902
▁able	-9.29908
▁winner	-9.30035
▁cardinals	-9.30302
▁mass	-9.30326
▁howard	-9.30352
▁classic	-9.30401
▁continues	-9.30454
▁spot	-9.30482
▁committee	-9.30732
▁missile	-9.30781
▁statement	-9.30818
▁block	-9.30923
▁eye	-9.30993
▁increasing	-9.31112
▁cause	-9.31121
▁movie	-9.31132
▁itunes	-9.31306
▁sue	-9.31344
▁hat	-9.31377
▁january	-9.31508
▁minutes	-9.31551
▁below	-9.31563
▁proposed	-9.31572
▁expects	-9.3158
▁concern	-9.31603
▁tiger	-9.31617
▁worries	-9.31695
▁sanctions	-9.31816
▁delay	-9.31878
▁mexico	-9.31898
mw	-9.31899
▁falls	-9.31959
▁range	-9.31988
ling	-9.32085
▁leaving	-9.32086
▁ball	-9.32183
▁karzai	-9.32282
▁28	-9.32295
▁organization	-9.32357
▁mars	-9.32811
▁zealand	-9.32873
▁poor	-9.33059
▁weather	-9.33079
▁chain	-9.33161
▁land	-9.332
▁memory	-9.33289
▁care	-9.33445
▁played	-9.33465
▁crew	-9.33467
▁science	-9.33572
▁nextel	-9.3358
▁interim	-9.33669
than	-9.33672
▁powell	-9.33865
▁senate	-9.33875
▁forced	-9.33919
out	-9.34019
▁entertainment	-9.34075
▁electronic	-9.34191
▁nhl	-9.34268
▁ruled	-9.34481
▁fed	-9.34537
▁caus	-9.34656
▁act	-9.34843
▁rush	-9.34863
▁supplies	-9.3487
▁fla	-9.35034
▁inning	-9.35052
▁hollywood	-9.35086
▁yen	-9.35289
▁spanish	-9.3529
▁pass	-9.35293
▁king	-9.35363
▁application	-9.35415
ranked	-9.3542
▁aircraft	-9.35474
▁kong	-9.35482
▁threatened	-9.35485
▁futures	-9.35594
▁korean	-9.35639
▁boss	-9.35669
▁illegal	-9.35748
▁started	-9.35945
▁tool	-9.35949
▁files	-9.35985
▁$1	-9.36012
▁secure	-9.36143
▁rule	-9.36152
▁carrier	-9.36247
▁sweep	-9.36287
▁sec	-9.36315
▁slightly	-9.36317
▁super	-9.36594
▁newspaper	-9.36664
▁thought	-9.36771
▁sharply	-9.36816
▁proposal	-9.36868
▁tonight	-9.36908
quote	-9.36934
▁protest	-9.37016
▁playoff	-9.37055
▁offered	-9.3708
▁firefox	-9.37113
▁moves	-9.37115
▁$50	-9.37148
▁venture	-9.37242
▁inflation	-9.37313
▁shopping	-9.37314
▁panel	-9.37321
▁provider	-9.37324
▁warner	-9.37381
▁cable	-9.37551
▁rejected	-9.37654
▁download	-9.37818
▁dropped	-9.37939
▁initial	-9.38011
▁beating	-9.3806
▁mortgage	-9.38124
▁stewart	-9.38147
▁heavy	-9.38157
▁formula	-9.3816
▁virus	-9.38179
pc	-9.38198
▁masters	-9.38223
▁wanted	-9.38315
ad	-9.38406
▁wild	-9.38439
▁progress	-9.38547
▁blow	-9.3855
▁develop	-9.38586
▁chelsea	-9.38614
▁servers	-9.38959
▁assault	-9.38991
▁became	-9.39042
▁murder	-9.3913
▁problem	-9.39179
▁buying	-9.39204
▁complete	-9.39218
▁terrorist	-9.39225
▁questions	-9.3937
▁deep	-9.39407
▁needs	-9.39415
▁returned	-9.39738
▁prix	-9.39824
▁carolina	-9.39832
▁auction	-9.39912
▁banks	-9.40015
▁sector	-9.40056
▁40	-9.40164
▁jail	-9.402
▁homes	-9.40207
▁kabul	-9.40246
▁question	-9.4044
▁film	-9.40511
▁patriots	-9.40635
▁hockey	-9.40895
▁el	-9.41214
▁these	-9.41321
▁lose	-9.41331
▁candidate	-9.41361
▁check	-9.41385
▁stand	-9.41409
▁reduce	-9.41415
▁eagles	-9.41444
▁ukraine	-9.41541
▁nigeria	-9.41598
▁2000	-9.4174
▁james	-9.41763
rial	-9.41783
▁premier	-9.41839
▁base	-9.41869
▁oakland	-9.41968
▁cit	-9.42017
▁me	-9.42359
though	-9.42367
▁pension	-9.42459
tica	-9.42461
▁haiti	-9.42585
▁irish	-9.42651
▁eastern	-9.42718
▁recently	-9.42722
ation	-9.42747
▁hot	-9.42835
ro	-9.42849
▁abu	-9.42849
▁photo	-9.42912
▁orders	-9.42962
▁mount	-9.43081
ry	-9.43088
▁impact	-9.43266
▁uranium	-9.43266
▁protect	-9.43453
ce	-9.43454
▁ministry	-9.43488
▁vice	-9.43506
▁wide	-9.43629
▁striker	-9.43631
▁font	-9.43637
▁replace	-9.43851
▁embassy	-9.43926
field	-9.43984
▁egypt	-9.44158
ur	-9.44309
▁value	-9.4439
▁jose	-9.444
▁wait	-9.44422
riel	-9.44471
▁joint	-9.44473
▁motor	-9.44504
under	-9.44578
▁important	-9.44607
▁tools	-9.44691
▁ending	-9.44692
▁live	-9.4476
▁brought	-9.44816
▁relief	-9.44818
▁shareholders	-9.44942
▁spacecraft	-9.45037
▁ivory	-9.45042
▁deadline	-9.45052
▁hoping	-9.45069
▁kept	-9.45258
uk	-9.45337
▁longer	-9.45338
▁sending	-9.45375
▁clash	-9.45446
▁pcs	-9.45483
▁michigan	-9.45486
▁christmas	-9.45492
▁hong	-9.45538
▁leads	-9.45603
▁bombing	-9.45629
▁closed	-9.45649
▁sharp	-9.45685
▁saudi	-9.45714
ams	-9.45738
▁opec	-9.45745
▁msn	-9.45774
nyse	-9.45802
▁practice	-9.45891
▁consecutive	-9.4593
▁negotiations	-9.45989
▁non	-9.46156
▁6-4	-9.46164
term	-9.46168
▁ohio	-9.46174
▁then	-9.46185
▁dolphins	-9.46251
▁te	-9.46349
▁surgery	-9.46389
▁intelligence	-9.46394
▁passes	-9.46423
▁attorney	-9.46526
▁discuss	-9.46647
▁brand	-9.46692
▁thailand	-9.46845
nasdaq	-9.46909
▁aim	-9.46917
▁29	-9.46931
▁sea	-9.4701
▁ford	-9.47049
▁arms	-9.47069
▁features	-9.47226
▁weak	-9.47407
▁issued	-9.47418
▁ve	-9.47541
▁training	-9.4762
▁needed	-9.47624
▁scheduled	-9.4768
▁strategy	-9.4775
▁os	-9.47771
▁aol	-9.47935
▁worldwide	-9.48004
way	-9.48009
▁accept	-9.4817
▁bird	-9.48223
▁prepare	-9.48246
▁announce	-9.48344
▁highest	-9.48357
▁manage	-9.4842
▁60	-9.48432
▁expand	-9.48448
▁arab	-9.48707
ful	-9.4877
▁wound	-9.48845
▁trip	-9.48895
▁planning	-9.4891
▁budget	-9.48919
▁millions	-9.48939
▁himself	-9.49131
week	-9.49143
▁martin	-9.49147
▁improve	-9.49267
▁civil	-9.49348
▁em	-9.49376
▁massive	-9.49378
▁merck	-9.49382
▁patent	-9.49403
▁controversial	-9.49601
▁cards	-9.49606
▁-2	-9.49708
▁targets	-9.49815
▁approval	-9.49832
▁kansas	-9.49836
▁hostile	-9.49839
▁hamas	-9.49842
▁together	-9.50064
▁soldier	-9.50068
▁easy	-9.50076
▁pakistani	-9.50089
▁output	-9.50092
▁zone	-9.50104
▁damage	-9.50122
ra	-9.50139
▁threaten	-9.50178
▁conflict	-9.5028
▁names	-9.50282
▁arrest	-9.50283
▁knee	-9.50299
▁dallas	-9.50322
expected	-9.50322
▁enron	-9.50325
▁cubs	-9.50375
ne	-9.50389
▁angels	-9.50401
font	-9.50401
▁operation	-9.50501
▁begins	-9.50713
▁serious	-9.50876
▁approve	-9.50894
ity	-9.50895
ter	-9.50951
▁eyes	-9.50975
▁different	-9.51012
helve	-9.5105
▁recovery	-9.51061
▁calling	-9.51094
▁mixed	-9.51135
▁climate	-9.51243
▁alliance	-9.51249
▁figures	-9.51302
▁mets	-9.51317
▁developed	-9.51564
▁advance	-9.51711
▁industrial	-9.51726
▁producer	-9.51782
▁ran	-9.518
▁bombs	-9.51899
▁verdan	-9.51958
▁afternoon	-9.51973
▁hotel	-9.52004
▁surprise	-9.52028
▁processor	-9.52047
▁surge	-9.52049
▁com	-9.52085
▁saw	-9.52238
▁ties	-9.52312
▁advertising	-9.52437
▁positive	-9.52437
▁ends	-9.52437
▁raid	-9.5245
erifa	-9.52457
▁image	-9.52479
▁revealed	-9.52615
▁lot	-9.52636
66666	-9.52677
▁threw	-9.52677
▁interview	-9.52703
▁republican	-9.52736
▁published	-9.5274
▁instead	-9.52759
▁innings	-9.52768
▁member	-9.528
▁lawsuits	-9.52911
▁facing	-9.5292
▁worst	-9.52924
▁am	-9.52926
▁cleveland	-9.52927
▁common	-9.52949
▁semiconductor	-9.53166
▁programs	-9.53279
ri	-9.53303
ment	-9.53379
▁vioxx	-9.53402
▁ebay	-9.53424
▁view	-9.53653
▁struck	-9.53654
▁built	-9.53676
▁direct	-9.53747
▁tests	-9.54058
▁award	-9.54289
▁secret	-9.54351
▁tie	-9.54487
▁daily	-9.54628
ul	-9.54632
▁struggling	-9.54633
▁airbus	-9.54635
▁operator	-9.54697
▁things	-9.54723
▁previous	-9.54982
▁itself	-9.55113
▁summit	-9.55126
▁novell	-9.55145
▁greek	-9.55188
ous	-9.55267
▁manufacturing	-9.55366
▁musharraf	-9.55608
▁federer	-9.55613
▁finish	-9.55719
▁details	-9.56018
▁smart	-9.56057
▁telephone	-9.56109
▁35	-9.56128
▁200	-9.56202
▁domestic	-9.56354
▁arizona	-9.56354
▁period	-9.56363
▁ordered	-9.56398
▁voting	-9.56421
▁estimates	-9.56439
▁bears	-9.56611
▁1-	-9.56776
▁delhi	-9.56856
▁ll	-9.56925
▁owner	-9.56976
▁#6	-9.57028
▁makers	-9.5716
▁decades	-9.5721
▁troubled	-9.5724
▁nikk	-9.57361
▁expos	-9.5756
▁$10	-9.57581
▁49	-9.57582
▁warming	-9.57591
▁trophy	-9.5761
▁believe	-9.5762
▁marketing	-9.57628
▁victims	-9.57632
▁probabl	-9.5769
ca	-9.57705
▁critical	-9.57747
▁train	-9.57801
▁pulled	-9.57902
▁retailers	-9.58001
▁room	-9.5808
▁prompt	-9.58117
ma	-9.58145
▁filing	-9.58166
▁ipo	-9.58269
▁decade	-9.58298
▁smith	-9.58301
▁ten	-9.584
▁showing	-9.5841
ta	-9.58526
yard	-9.58578
▁community	-9.58627
▁micro	-9.58635
▁pittsburgh	-9.58651
▁br	-9.58779
▁platform	-9.5879
▁helping	-9.58811
▁pitcher	-9.58838
of	-9.58886
▁moving	-9.58903
▁l	-9.58929
▁bell	-9.59084
▁beginning	-9.59141
▁jet	-9.59146
▁cancer	-9.59149
▁nintendo	-9.59154
▁racing	-9.59154
▁introduced	-9.59166
▁multi	-9.59169
te	-9.59177
▁machines	-9.59252
for	-9.59268
▁criminal	-9.593
▁extended	-9.5932
▁saddam	-9.59403
▁score	-9.59463
▁appeared	-9.59507
cat	-9.59553
son	-9.59564
be	-9.59583
▁royal	-9.5959
▁tim	-9.5965
▁offense	-9.59654
▁expansion	-9.59655
▁terms	-9.5969
▁sp	-9.59769
▁vi	-9.59881
▁species	-9.59919
high	-9.59953
▁bar	-9.60062
▁decide	-9.60071
▁deadly	-9.60078
▁cingular	-9.60183
▁dame	-9.60193
▁goals	-9.60336
point	-9.60558
▁opener	-9.60619
one	-9.60668
▁broad	-9.60674
▁spent	-9.60695
▁something	-9.6071
▁book	-9.60815
▁fear	-9.60968
▁halt	-9.61074
▁blood	-9.61109
▁buys	-9.61147
▁typhoon	-9.61477
▁rookie	-9.61481
▁plc	-9.61492
▁ask	-9.61493
ch	-9.61616
▁inside	-9.61628
▁message	-9.61709
ary	-9.61784
▁bin	-9.61992
▁broke	-9.6229
▁parts	-9.62312
▁explorer	-9.62312
▁passed	-9.62365
no	-9.62429
▁benefits	-9.62465
▁diego	-9.62537
▁shuttle	-9.62586
▁model	-9.62675
▁arrived	-9.6269
▁bryant	-9.62818
▁finds	-9.62841
▁touchdowns	-9.62895
▁sport	-9.62929
▁historic	-9.62962
▁index	-9.63054
▁developing	-9.63058
land	-9.63129
▁walk	-9.63137
▁isn	-9.63228
▁indonesian	-9.63323
▁utah	-9.63334
▁falling	-9.63407
▁date	-9.63414
▁discovered	-9.63545
▁watchdog	-9.63601
la	-9.63711
▁age	-9.63804
▁flash	-9.63824
▁fiscal	-9.6387
▁draft	-9.63883
▁income	-9.63973
half	-9.64043
▁vow	-9.64155
▁session	-9.6447
▁withdraw	-9.64475
▁flights	-9.64486
▁annan	-9.64694
▁roger	-9.64707
line	-9.64845
▁bus	-9.64899
ness	-9.64901
▁jerusalem	-9.64998
▁recall	-9.65044
▁purchase	-9.65059
speed	-9.65123
▁vladimir	-9.65226
▁cars	-9.65231
▁wrong	-9.65235
▁rangers	-9.65269
▁display	-9.65314
ally	-9.65357
largest	-9.65393
▁remained	-9.65409
▁falluja	-9.65469
▁knock	-9.6549
▁defence	-9.65504
▁corporation	-9.65517
▁fannie	-9.65517
▁associated	-9.65528
▁done	-9.65543
▁aims	-9.65614
▁upset	-9.65703
news	-9.65869
▁demands	-9.65879
▁resume	-9.65906
▁dodgers	-9.65911
▁tomorrow	-9.66047
▁tehran	-9.66063
▁province	-9.66065
▁paid	-9.66092
▁sex	-9.66154
▁microsystems	-9.66323
▁puts	-9.66362
▁miles	-9.66478
▁partners	-9.6648
▁amazon	-9.6661
▁resolution	-9.66623
lo	-9.6664
▁pack	-9.66648
▁returns	-9.6665
▁id	-9.66706
▁dow	-9.66754
▁numbers	-9.66757
▁appears	-9.66787
▁holds	-9.66893
▁regulator	-9.66933
▁ag	-9.66957
▁stars	-9.66991
▁cross	-9.67001
▁republic	-9.67131
▁assets	-9.67135
▁polls	-9.67158
▁antitrust	-9.67159
▁dream	-9.67208
packard	-9.6747
▁announces	-9.67509
▁format	-9.6751
▁catch	-9.67581
▁driver	-9.67601
microsoft	-9.67612
▁planet	-9.67647
▁pair	-9.67674
▁wake	-9.67713
▁tried	-9.67718
▁jason	-9.67732
▁urges	-9.67872
nd	-9.67949
ex	-9.67976
▁announcement	-9.6806
▁slam	-9.68085
▁virtual	-9.68114
(	-9.68118
▁link	-9.6812
▁heating	-9.68126
▁virgin	-9.68174
▁homer	-9.68365
▁mon	-9.68484
▁students	-9.68536
▁cabinet	-9.68555
▁verizon	-9.68579
▁liverpool	-9.68591
▁van	-9.68687
▁hands	-9.68764
▁rais	-9.68768
▁gulf	-9.68839
▁thanks	-9.68921
▁story	-9.68952
▁voice	-9.69055
▁steel	-9.69088
▁portable	-9.69131
▁nothing	-9.69137
▁wrap	-9.69152
▁threats	-9.69199
▁doctors	-9.69232
▁crowd	-9.69318
▁traders	-9.69352
▁upgrade	-9.69389
▁hewitt	-9.69404
▁copyright	-9.69405
▁mozilla	-9.69416
▁rare	-9.69577
▁seventh	-9.69624
▁gm	-9.69648
▁baltimore	-9.69705
▁exports	-9.69782
▁hurricanes	-9.69824
▁v	-9.69855
▁options	-9.69902
▁traffic	-9.69972
▁greenspan	-9.69983
▁fastest	-9.69997
as	-9.70023
▁georgia	-9.70108
▁defend	-9.70183
▁reform	-9.70199
▁defensive	-9.70268
au	-9.70332
▁residents	-9.70335
▁partner	-9.70402
▁reportedly	-9.70415
▁java	-9.70551
▁sixth	-9.70555
▁400	-9.70566
▁testing	-9.70567
▁exploded	-9.70602
▁introduce	-9.70624
▁marsh	-9.70668
▁hall	-9.70686
1)	-9.70702
▁delayed	-9.70742
▁owners	-9.70794
▁manning	-9.70822
▁twice	-9.70837
▁congo	-9.70841
▁treasury	-9.70843
▁1000	-9.70863
▁mae	-9.70902
▁hire	-9.70955
▁tight	-9.70987
▁nascar	-9.71128
▁sudanese	-9.71136
▁gates	-9.7114
▁montreal	-9.71142
▁theft	-9.71155
um	-9.71163
▁schedule	-9.71228
▁plot	-9.71272
▁2-0	-9.71436
▁titan	-9.7151
round	-9.71678
▁colorado	-9.71716
▁braves	-9.71723
▁faster	-9.7186
▁convention	-9.71914
▁freed	-9.71919
▁nl	-9.71948
▁coalition	-9.71998
▁closing	-9.72
▁edition	-9.72013
▁pact	-9.72019
▁generation	-9.72028
▁leaves	-9.72075
li	-9.72125
▁holdings	-9.72132
▁living	-9.72245
▁forecasts	-9.72261
▁mp	-9.72393
▁sen	-9.72406
▁rallie	-9.72415
▁qualifying	-9.72464
▁stem	-9.72539
▁ship	-9.72555
▁english	-9.72579
▁extra	-9.72586
▁partnership	-9.72589
▁lay	-9.726
▁samsung	-9.72602
▁seed	-9.72605
▁31	-9.7271
▁cool	-9.72747
▁expect	-9.72828
▁thing	-9.7289
▁allegations	-9.7296
▁really	-9.73066
▁roddick	-9.73173
▁saturn	-9.73174
▁enrichment	-9.73183
▁6-3	-9.7319
▁spyware	-9.73297
▁notebook	-9.73347
▁patch	-9.73444
▁request	-9.73459
▁toshiba	-9.73485
▁treatment	-9.73508
▁sure	-9.73523
▁tigers	-9.73621
▁votes	-9.73664
▁word	-9.73693
▁associates	-9.73717
▁shiite	-9.73769
▁computing	-9.73776
▁witnesses	-9.73811
▁considering	-9.73873
▁allowed	-9.73898
▁ba	-9.73911
▁disease	-9.73947
▁steps	-9.73986
▁pound	-9.74042
▁oklahoma	-9.74073
▁unexpected	-9.74149
▁matter	-9.7434
▁june	-9.74399
▁10-	-9.74424
do	-9.74446
▁strength	-9.74661
▁district	-9.74668
▁blasts	-9.7467
▁ease	-9.74695
▁spark	-9.74736
▁handheld	-9.74869
▁package	-9.74896
▁charles	-9.74962
▁retirement	-9.7497
▁con	-9.75148
▁levels	-9.75174
▁customer	-9.75222
▁crucial	-9.75265
▁jan	-9.75307
▁hearing	-9.75379
▁motors	-9.75415
▁son	-9.7545
▁candidates	-9.75499
▁familiar	-9.75565
▁themselves	-9.75565
▁dozens	-9.75603
▁prince	-9.75635
▁sydney	-9.7564
▁prevent	-9.75665
▁currency	-9.75872
▁grew	-9.76173
▁atomic	-9.76173
▁dual	-9.76194
▁fine	-9.76438
▁class	-9.76471
▁emergency	-9.76484
▁love	-9.76543
▁often	-9.76612
▁twins	-9.76679
▁marathon	-9.76806
▁quit	-9.76971
▁shut	-9.77015
▁core	-9.77056
▁hewlett	-9.77132
▁areas	-9.77141
▁via	-9.77171
men	-9.77254
star	-9.77276
▁500	-9.77486
▁grow	-9.77613
▁iraqis	-9.77631
▁standards	-9.77661
▁shift	-9.77702
▁maintain	-9.77709
▁shock	-9.7773
▁jakarta	-9.77739
▁scores	-9.77817
▁banking	-9.77945
▁ministers	-9.77954
▁supercomputer	-9.77989
▁bodies	-9.78015
▁ninth	-9.78015
▁tennessee	-9.78021
▁piracy	-9.78101
il	-9.78136
▁commissioner	-9.78187
▁successful	-9.78208
ship	-9.78267
▁tom	-9.78373
▁unions	-9.78511
▁abuse	-9.78573
▁allawi	-9.78637
▁present	-9.78639
▁gunmen	-9.78641
▁mine	-9.78646
▁telecom	-9.78661
▁linked	-9.78693
▁defending	-9.78708
ial	-9.78732
▁independent	-9.78807
▁camera	-9.78922
▁richard	-9.78924
de	-9.79039
▁appeals	-9.79068
▁syria	-9.79106
nt	-9.79185
▁anaheim	-9.79276
▁withdrawal	-9.79304
▁strikes	-9.79323
▁headed	-9.79328
▁developer	-9.79356
▁sbc	-9.79487
▁info	-9.79523
▁mutual	-9.79636
▁century	-9.79655
ray	-9.7967
lecommunications	-9.79721
▁seems	-9.79745
▁managers	-9.79783
0000	-9.79858
▁beyond	-9.79893
▁highs	-9.79909
▁bills	-9.79939
▁cutting	-9.8004
▁alex	-9.80046
▁bangladesh	-9.80159
▁robert	-9.80206
▁philippines	-9.8028
▁prepared	-9.80309
▁quickly	-9.80309
▁previously	-9.80378
▁opens	-9.80458
▁changed	-9.80517
▁cities	-9.80544
▁6-2	-9.80549
▁child	-9.8055
▁created	-9.80631
▁approach	-9.80659
long	-9.80715
▁significant	-9.80724
▁documents	-9.80775
▁magazine	-9.80845
▁$2	-9.80889
▁hamm	-9.81013
▁extension	-9.81166
▁radical	-9.81177
▁egyptian	-9.81196
▁picture	-9.81206
ny	-9.81334
▁prepar	-9.81356
▁delays	-9.81375
▁solid	-9.81498
▁veteran	-9.81525
▁missed	-9.81545
▁declared	-9.81557
▁wales	-9.81564
▁majority	-9.81569
par	-9.81588
▁completed	-9.81625
▁rout	-9.81647
▁chase	-9.81654
▁sa	-9.81796
▁activity	-9.81811
▁pacers	-9.81841
▁related	-9.81842
▁wave	-9.81874
by	-9.81923
▁prove	-9.81933
▁wife	-9.82136
▁starts	-9.82395
▁turns	-9.82421
▁martha	-9.82453
▁analyst	-9.82539
▁flag	-9.82548
▁suspects	-9.82714
▁agent	-9.8272
▁beckham	-9.82779
rd	-9.82794
▁doubt	-9.82832
▁worm	-9.82838
▁conditions	-9.8288
▁finished	-9.83099
▁remote	-9.83103
-10	-9.83129
▁spend	-9.83172
▁receiver	-9.83188
▁pacific	-9.83226
▁lack	-9.83228
▁prosecutors	-9.83258
▁rockets	-9.83302
▁allows	-9.83306
▁cuba	-9.83325
▁smaller	-9.83428
▁denied	-9.8343
▁pga	-9.83465
▁looked	-9.83499
▁sri	-9.83532
▁putting	-9.83582
▁suspend	-9.8361
▁jumped	-9.83617
▁regional	-9.83625
▁die	-9.83643
newsfactor	-9.83707
em	-9.83756
▁dramatic	-9.83761
▁response	-9.83762
▁lawyers	-9.83768
▁swiss	-9.8378
▁1-0	-9.8381
▁option	-9.83813
▁benefit	-9.83843
▁apparently	-9.83847
et	-9.83847
▁sought	-9.83965
ko	-9.83991
▁80	-9.84055
▁speech	-9.84065
▁person	-9.84074
▁perfect	-9.84091
▁redskins	-9.84094
▁jeff	-9.84099
▁chart	-9.84116
▁bought	-9.84153
▁hole	-9.84164
▁voted	-9.84191
▁2-	-9.84289
▁natural	-9.84297
▁va	-9.84348
▁records	-9.84367
▁forest	-9.84407
▁opportunity	-9.84417
▁jury	-9.84419
▁speculation	-9.84426
▁dies	-9.84445
▁$3	-9.84534
▁semi	-9.84625
▁parties	-9.84808
tech	-9.84814
▁links	-9.84834
▁overtime	-9.84846
▁certain	-9.84944
▁feature	-9.84981
▁trouble	-9.84991
▁shooting	-9.84997
▁images	-9.85013
▁appear	-9.85042
▁donald	-9.85112
▁earthquake	-9.85188
▁prisoners	-9.85204
▁finding	-9.85366
▁adding	-9.85379
▁rooney	-9.85414
▁gone	-9.85519
▁governor	-9.85525
▁keeps	-9.8559
▁setting	-9.85595
▁boy	-9.85702
▁martinez	-9.8575
▁schilling	-9.85772
▁eighth	-9.85816
age	-9.85884
▁nigerian	-9.85993
▁joined	-9.86036
na	-9.86042
rs	-9.86051
▁goods	-9.86106
▁plus	-9.86128
▁reason	-9.8617
ha	-9.86211
▁ice	-9.86275
ba	-9.86327
▁terrorists	-9.8642
▁priority	-9.86423
▁3-0	-9.86445
▁deaths	-9.86659
▁hussein	-9.86659
▁signal	-9.8675
▁brussels	-9.86789
▁turning	-9.8692
▁inter	-9.86954
▁fan	-9.87075
▁tiny	-9.87126
▁narrow	-9.8723
▁disaster	-9.87231
▁address	-9.87258
am	-9.87289
▁journal	-9.87333
▁3-	-9.87339
▁nortel	-9.87471
▁chris	-9.87485
▁ny	-9.87578
▁believed	-9.87708
▁indiana	-9.87738
he	-9.87934
▁books	-9.87934
▁effect	-9.87945
▁account	-9.88017
▁kidnappers	-9.88127
▁slide	-9.88145
▁bombings	-9.88165
▁lanka	-9.88308
html	-9.88466
ley	-9.88504
▁flaw	-9.88545
▁stronger	-9.88692
▁hills	-9.88699
▁cents	-9.88711
▁wenger	-9.8881
2)	-9.8881
▁advantage	-9.88811
▁always	-9.88811
▁beach	-9.88819
▁comments	-9.8884
▁laden	-9.88962
▁breaking	-9.89056
generation	-9.89124
▁ok	-9.89138
▁cassini	-9.89156
▁ravens	-9.89156
▁hamid	-9.89157
▁2002	-9.89171
▁frances	-9.89222
im	-9.89249
▁beta	-9.8925
▁solution	-9.8935
▁rescue	-9.89376
▁crashed	-9.89386
▁qaeda	-9.89401
▁art	-9.89466
▁unbeaten	-9.89503
▁compete	-9.89503
▁zimbabwe	-9.89505
▁motion	-9.89543
▁bo	-9.89547
▁colts	-9.89554
▁clashes	-9.89565
▁failure	-9.89693
▁broken	-9.89709
▁property	-9.89873
▁ways	-9.89908
▁ring	-9.90022
▁alan	-9.90043
▁database	-9.90046
▁tackle	-9.90064
▁bit	-9.90153
▁blame	-9.90153
▁bomber	-9.90222
▁involved	-9.903
▁improved	-9.90475
▁activities	-9.90552
▁phelps	-9.90552
▁auburn	-9.90575
▁deliver	-9.90576
▁bigley	-9.90595
▁rich	-9.90729
▁machine	-9.90775
▁cold	-9.90809
▁situation	-9.90904
▁pedro	-9.90904
▁comeback	-9.90924
▁sky	-9.90936
▁tries	-9.90954
▁centre	-9.91077
▁deals	-9.91082
ia	-9.91088
▁regular	-9.91125
▁ads	-9.91263
▁hardware	-9.91266
▁taliban	-9.91276
▁1:	-9.9133
▁safe	-9.91334
▁plead	-9.91338
▁gather	-9.91366
▁releases	-9.91438
▁pitch	-9.91455
▁fa	-9.91514
sharing	-9.91601
▁milan	-9.91632
▁fly	-9.91649
▁steelers	-9.91649
▁democracy	-9.91698
▁carrying	-9.91817
▁directors	-9.9188
▁social	-9.91939
▁orbit	-9.91962
▁tampa	-9.91977
▁seconds	-9.92023
▁barry	-9.92026
▁limited	-9.92054
▁commerce	-9.92099
▁lions	-9.92166
▁2001	-9.92237
▁shrine	-9.92325
▁leadership	-9.92375
▁separate	-9.9238
▁kev	-9.92434
▁believes	-9.92495
▁coup	-9.92571
▁nationwide	-9.92691
▁argentina	-9.92695
▁rather	-9.92696
▁denver	-9.92715
▁sentenced	-9.92816
▁soft	-9.92885
▁movies	-9.93004
▁lewis	-9.93043
▁attention	-9.93062
ist	-9.93096
▁rebounds	-9.93242
▁ga	-9.93272
▁en	-9.93396
mo	-9.93399
▁matches	-9.93564
ge	-9.9363
▁website	-9.93681
▁labour	-9.93768
▁nobel	-9.93773
▁cincinnati	-9.93781
▁vodafone	-9.93788
▁breaks	-9.93791
▁packers	-9.93806
▁crown	-9.93836
▁county	-9.93876
▁sells	-9.93879
sym	-9.93911
▁traditional	-9.9393
▁hunt	-9.94097
▁poised	-9.94141
▁carlos	-9.94157
▁begun	-9.9416
▁choice	-9.94194
▁collapse	-9.94344
lin	-9.94386
▁welcome	-9.94407
▁preview	-9.94415
▁vehicle	-9.9445
▁technical	-9.94495
▁craig	-9.94498
▁supporters	-9.9451
▁unlikely	-9.94522
▁hear	-9.94537
▁holy	-9.94608
▁gap	-9.94663
▁foot	-9.94846
id	-9.94856
▁inquiry	-9.94861
▁kind	-9.9495
▁soar	-9.95053
over	-9.95142
side	-9.9515
▁increases	-9.9515
▁difficult	-9.95219
▁pushed	-9.95244
ty	-9.95353
rmed	-9.95358
▁surged	-9.95376
▁tell	-9.95472
▁fair	-9.95474
▁investigating	-9.95598
▁lawmakers	-9.95598
▁trail	-9.95602
▁golden	-9.9561
▁scotland	-9.9563
▁indianapolis	-9.95641
▁crimes	-9.95674
▁immediately	-9.95682
▁admitted	-9.95698
back	-9.95713
ant	-9.95716
▁shi	-9.95757
ted	-9.95829
▁instant	-9.95836
▁venezuela	-9.95837
eeded	-9.9585
per	-9.95901
▁confident	-9.95963
▁similar	-9.95968
▁continuing	-9.95969
▁nets	-9.96073
▁mr	-9.96185
▁renewed	-9.96187
▁parent	-9.96331
▁entered	-9.9634
▁ma	-9.96355
▁turkish	-9.9636
▁berlin	-9.96364
▁scoring	-9.96381
▁era	-9.96393
▁morgan	-9.96407
▁fees	-9.96431
▁$5	-9.96444
▁fox	-9.96473
▁promised	-9.96474
▁escape	-9.96497
▁sued	-9.96641
▁bolster	-9.96713
▁drops	-9.96721
▁premiership	-9.96723
▁agencies	-9.96742
▁atlantic	-9.96834
ite	-9.96935
▁championships	-9.96985
da	-9.97076
▁doing	-9.97082
▁housing	-9.97089
▁self	-9.97097
▁citigroup	-9.97116
▁fish	-9.97154
▁leg	-9.97194
▁silicon	-9.97226
▁plays	-9.97338
▁ad	-9.97342
▁drives	-9.97403
ting	-9.97498
▁overnight	-9.97502
▁alive	-9.97711
me	-9.97773
▁motorola	-9.97855
core	-9.97875
▁broker	-9.98005
▁2-1	-9.98017
▁shell	-9.98053
▁split	-9.98158
finance	-9.9819
▁jr	-9.98193
▁declined	-9.98214
▁criticism	-9.98223
▁protocol	-9.98228
▁seoul	-9.98252
▁disappointing	-9.98282
air	-9.98477
▁resigned	-9.98492
▁alert	-9.98593
▁lawyer	-9.98622
▁hike	-9.9865
▁officers	-9.98753
▁counter	-9.9878
▁ko	-9.98793
▁explosives	-9.98898
▁screen	-9.98912
ka	-9.98954
general	-9.98985
▁idea	-9.98988
▁clean	-9.99005
▁square	-9.99013
▁kmart	-9.99017
▁heads	-9.99137
▁touch	-9.99164
▁joe	-9.99261
▁suggest	-9.99288
▁violent	-9.99365
▁300	-9.99375
▁table	-9.99419
▁2004.	-9.99436
):	-9.99439
va	-9.99536
▁lee	-9.99583
▁soaring	-9.99631
▁refugee	-9.99665
▁ron	-9.99677
▁preliminary	-9.99753
▁caught	-9.99754
▁professional	-9.99798
▁remaining	-9.99937
▁widely	-9.99979
▁planes	-10.0004
▁greater	-10.0005
▁helps	-10.0005
▁carter	-10.0021
ier	-10.0025
▁lineup	-10.0028
▁words	-10.0028
infoworld	-10.0029
▁lives	-10.0033
▁jersey	-10.0052
▁authority	-10.0053
▁produce	-10.0053
▁deputy	-10.0053
▁solar	-10.0054
▁father	-10.0055
▁pt	-10.0057
▁investor	-10.0063
dow	-10.0072
spam	-10.0076
▁acquired	-10.0082
▁hu	-10.0082
▁backs	-10.0087
▁sound	-10.0091
▁scientific	-10.0092
▁uefa	-10.0093
▁voip	-10.0095
▁sir	-10.0095
▁capacity	-10.0096
▁lows	-10.0104
▁paper	-10.0104
▁45	-10.0111
▁malaysia	-10.0117
ized	-10.0118
▁asks	-10.0118
▁athletics	-10.0126
▁ottawa	-10.0133
▁fields	-10.0135
▁iranian	-10.0137
▁vendor	-10.0137
▁cover	-10.0144
▁favor	-10.0162
▁throw	-10.0169
▁myanmar	-10.017
▁steady	-10.017
▁construction	-10.017
▁jackson	-10.017
▁status	-10.017
▁miller	-10.0172
▁suspect	-10.0172
▁newcastle	-10.0175
▁chechen	-10.0175
ought	-10.0183
▁read	-10.0199
etary	-10.0204
jewish	-10.0209
▁sharing	-10.0212
ga	-10.0215
▁songs	-10.0218
▁recording	-10.0223
▁overall	-10.0223
▁slip	-10.0228
▁ken	-10.0231
▁70	-10.0234
▁gear	-10.0237
▁vendors	-10.0241
▁port	-10.0248
▁restructuring	-10.0248
▁vietnam	-10.0249
▁wasn	-10.0253
▁passenger	-10.0258
ian	-10.0268
▁count	-10.0277
sh	-10.0289
▁jobless	-10.0294
▁channel	-10.0298
▁seized	-10.0308
▁officially	-10.0312
)--	-10.0314
▁waiting	-10.032
ti	-10.0323
▁sharapova	-10.0328
▁thomas	-10.0328
▁sears	-10.0329
london	-10.033
▁edwards	-10.0331
▁islamabad	-10.0333
▁vehicles	-10.0335
election	-10.0343
▁means	-10.0345
▁climb	-10.0348
▁sides	-10.0348
▁carry	-10.0354
▁worker	-10.0365
volving	-10.0368
ay	-10.0371
▁militia	-10.0378
bo	-10.0384
un	-10.0384
▁banned	-10.0387
down	-10.0387
▁trigger	-10.0408
▁kodak	-10.0408
▁halo	-10.0409
million	-10.041
▁adobe	-10.041
▁dangerous	-10.0411
▁wayne	-10.0419
▁dan	-10.0426
ho	-10.0427
▁frank	-10.0428
▁anniversary	-10.0448
▁brawl	-10.0448
▁shipping	-10.0449
▁patients	-10.0449
▁kobe	-10.0449
▁els	-10.0455
▁studios	-10.0464
▁unless	-10.0465
▁invest	-10.0467
▁captured	-10.0474
▁entire	-10.0476
▁pa	-10.048
▁roll	-10.0488
▁agassi	-10.0489
▁spitzer	-10.049
▁sub	-10.0506
▁broadcast	-10.0508
▁pain	-10.0513
▁struggle	-10.0526
▁jeanne	-10.053
▁gary	-10.0534
go	-10.0541
▁fix	-10.0544
▁ray	-10.055
▁ben	-10.0558
▁dr	-10.0561
▁laws	-10.057
▁evening	-10.0571
▁grid	-10.0572
▁41	-10.0574
▁convicted	-10.0575
▁capture	-10.0575
▁challenges	-10.0579
▁mosque	-10.0584
▁le	-10.0591
▁spammers	-10.0604
▁chances	-10.0608
▁franchise	-10.0611
▁larry	-10.0612
▁lebanon	-10.0612
sadr	-10.0615
▁relations	-10.0622
▁resources	-10.0623
▁briefly	-10.0624
▁founder	-10.0625
▁vaccine	-10.0626
lookup	-10.0643
▁mariners	-10.0653
▁cyber	-10.0657
▁lifted	-10.0659
▁scott	-10.0666
cost	-10.0671
▁attacked	-10.0672
▁palm	-10.0691
▁fill	-10.0694
▁navy	-10.0695
▁legislation	-10.0695
▁brian	-10.0696
▁schools	-10.0701
▁snow	-10.0706
rich	-10.0715
▁desert	-10.072
▁original	-10.0721
▁failing	-10.0734
▁ancient	-10.0735
ism	-10.0751
▁marines	-10.0754
space	-10.0756
▁democrats	-10.0758
▁fact	-10.076
red	-10.076
two	-10.0761
season	-10.077
▁vows	-10.0776
▁resignation	-10.0777
▁briton	-10.0779
▁hackers	-10.0807
▁pop	-10.0807
ner	-10.0809
▁defeated	-10.0811
▁works	-10.0813
held	-10.0814
▁squad	-10.0819
▁gaming	-10.0819
▁everything	-10.0819
▁improving	-10.0819
▁denies	-10.0819
▁coli	-10.0819
▁blockbuster	-10.082
▁messaging	-10.0821
▁pistons	-10.0822
▁reaches	-10.0837
▁summary	-10.0861
▁injuries	-10.0862
▁circuit	-10.0865
▁arabia	-10.0869
▁jacques	-10.0869
▁chiefs	-10.087
▁bob	-10.0872
▁developers	-10.0873
▁environmental	-10.0874
▁playoffs	-10.0879
▁brain	-10.0881
▁threatening	-10.0891
▁pole	-10.09
▁mountain	-10.09
▁spread	-10.0904
ham	-10.0905
▁700	-10.0906
▁disc	-10.0909
▁viruses	-10.0911
▁walt	-10.093
▁feel	-10.0936
▁identity	-10.0945
▁showdown	-10.0948
▁creat	-10.0949
▁user	-10.0951
▁jailed	-10.0956
▁ability	-10.096
▁brief	-10.0971
▁girl	-10.0971
▁mean	-10.0972
▁refused	-10.0974
▁seat	-10.0982
▁drove	-10.0988
▁arctic	-10.0988
▁ankle	-10.0988
▁jordan	-10.0989
▁vienna	-10.099
▁fda	-10.0991
▁gordon	-10.0991
ious	-10.0991
ac	-10.0994
▁34	-10.0995
▁announc	-10.0997
▁quick	-10.1002
▁hill	-10.1013
▁manufacturer	-10.1014
▁measures	-10.1021
▁pervez	-10.1031
▁symantec	-10.1033
▁factory	-10.1037
▁events	-10.1037
▁shoppers	-10.1046
▁clinch	-10.1054
▁winds	-10.1054
▁capsule	-10.1055
▁strengthen	-10.1057
▁promises	-10.1058
▁signing	-10.1058
▁titans	-10.106
▁blackberry	-10.1074
▁ncaa	-10.1074
▁wind	-10.1075
top	-10.1076
▁thai	-10.1077
▁providers	-10.1082
▁quite	-10.1087
▁taxes	-10.1092
▁eased	-10.1099
▁ill	-10.1103
▁units	-10.1104
lew	-10.1111
▁electric	-10.1113
▁orleans	-10.1117
▁genesis	-10.1117
▁pfizer	-10.1118
▁stern	-10.1126
▁semifinals	-10.113
▁critics	-10.113
▁box	-10.1138
▁experience	-10.114
▁usa	-10.114
▁doubled	-10.1142
▁resolve	-10.1148
▁spring	-10.1154
▁mayor	-10.1155
▁$	-10.1157
▁accident	-10.1159
▁postseason	-10.1162
▁matt	-10.1168
▁ranking	-10.1175
▁mail	-10.1175
▁internal	-10.119
vi	-10.1193
▁sadr	-10.1202
▁slump	-10.1202
▁tumble	-10.1203
▁halliburton	-10.1204
▁weigh	-10.1207
▁brazilian	-10.1209
related	-10.121
▁path	-10.1211
op	-10.1218
▁export	-10.1222
▁reporting	-10.1225
cola	-10.1228
▁65	-10.1228
▁environment	-10.1228
▁considered	-10.1229
▁moment	-10.1233
▁pictures	-10.1243
▁silver	-10.1244
▁analysis	-10.1247
ke	-10.1266
▁switch	-10.1269
▁discount	-10.1277
▁education	-10.1289
ol	-10.1289
▁surprising	-10.1291
▁henman	-10.1291
▁successor	-10.1297
▁foundation	-10.1297
▁usual	-10.1298
▁siege	-10.131
▁dismissed	-10.1313
▁answer	-10.1318
▁represent	-10.1321
▁cast	-10.1331
▁combat	-10.1332
▁possibly	-10.1335
▁tentative	-10.1335
▁cooperation	-10.1336
ibm	-10.1341
▁fcc	-10.1342
▁politics	-10.1343
▁loses	-10.1343
▁friends	-10.135
▁peter	-10.1351
▁suspension	-10.1366
▁boom	-10.1373
▁processors	-10.1376
▁backed	-10.1379
▁tied	-10.1386
erry	-10.1388
▁emerged	-10.139
▁dis	-10.1397
▁minute	-10.1397
▁33	-10.1397
▁figure	-10.1399
▁condition	-10.1405
▁chirac	-10.1424
▁vegas	-10.1424
▁spaceshipone	-10.1424
▁landmark	-10.1424
▁tape	-10.1425
▁bottom	-10.1425
▁32	-10.1427
▁vijay	-10.1427
▁barcelona	-10.1428
▁civilians	-10.1428
▁bbc	-10.1428
▁messages	-10.1431
▁freeze	-10.1436
▁lake	-10.1437
▁z	-10.1439
▁shots	-10.144
▁jays	-10.1441
▁tops	-10.1466
▁envoy	-10.1468
▁either	-10.1468
▁april	-10.147
▁bigger	-10.147
▁sunni	-10.1471
▁driving	-10.1471
ever	-10.1471
ent	-10.1473
dollar	-10.1475
▁newly	-10.1478
▁mind	-10.1483
mb	-10.1498
▁traded	-10.1505
▁email	-10.1507
▁exit	-10.1508
▁crime	-10.1509
▁injur	-10.151
▁perhaps	-10.1513
▁cap	-10.1521
▁doping	-10.1522
▁receive	-10.1526
▁driven	-10.1531
▁practices	-10.1532
▁photos	-10.1543
▁offset	-10.1555
qaida	-10.1558
▁modest	-10.1559
▁outsourcing	-10.1559
▁regard	-10.1559
▁arthritis	-10.1559
▁strategic	-10.1559
▁ongoing	-10.156
▁subscribers	-10.156
▁communist	-10.156
▁programme	-10.156
shot	-10.1566
▁additional	-10.1567
tada	-10.1572
▁serve	-10.1576
ard	-10.1581
▁fate	-10.1581
▁song	-10.1582
▁graphics	-10.1588
▁bridge	-10.1604
▁bobby	-10.1604
▁7-6	-10.1605
▁happy	-10.1606
▁corruption	-10.1606
▁fighters	-10.1608
strong	-10.161
▁solaris	-10.161
▁64	-10.1616
▁faced	-10.1621
▁weaker	-10.1623
▁onto	-10.1629
▁ali	-10.1632
▁connection	-10.1643
▁scientist	-10.1643
▁flying	-10.1645
▁kofi	-10.165
▁columbia	-10.1651
▁journalists	-10.1655
▁truck	-10.1664
▁surface	-10.1678
▁colombia	-10.168
▁limit	-10.1686
▁astronauts	-10.1686
▁bull	-10.1692
▁dozen	-10.1692
▁overseas	-10.1695
finals	-10.1695
▁chile	-10.1695
▁expands	-10.1703
▁throughout	-10.1703
▁ii	-10.1707
▁im	-10.1707
▁cowboys	-10.1711
▁band	-10.1722
▁kyoto	-10.1742
▁preseason	-10.1742
▁fellow	-10.1742
▁river	-10.1753
20	-10.1769
▁contain	-10.1771
▁massachusetts	-10.1787
▁shanghai	-10.1787
▁playstation	-10.1787
▁lockout	-10.1787
▁kim	-10.1789
▁jack	-10.179
▁flood	-10.1813
▁foods	-10.1814
▁libya	-10.1818
▁6-1	-10.1821
▁passengers	-10.1822
▁browns	-10.1828
▁trend	-10.1829
▁reflect	-10.183
▁mosul	-10.1833
▁inventories	-10.1833
▁alitalia	-10.1834
▁everyone	-10.1836
american	-10.1845
▁expanding	-10.1865
▁nepal	-10.1868
▁insisted	-10.1869
▁tri	-10.1874
▁pipeline	-10.1876
▁2005.	-10.1877
▁ip	-10.1878
▁brother	-10.1878
▁retain	-10.1879
▁institute	-10.1879
▁netherlands	-10.1879
▁universal	-10.1879
▁toyota	-10.188
▁serena	-10.1881
▁diplomats	-10.189
▁streets	-10.1892
▁pct	-10.1895
world	-10.1902
▁resigns	-10.1916
▁drivers	-10.1917
bit	-10.1921
serving	-10.1922
▁enjoy	-10.1922
▁eli	-10.1923
▁ferguson	-10.1926
▁marlins	-10.1926
▁brokerage	-10.1927
▁assistant	-10.1928
▁cleared	-10.193
▁hd	-10.1939
▁retire	-10.1939
▁contracts	-10.1949
▁curb	-10.1954
▁heard	-10.1966
▁caribbean	-10.1973
▁floods	-10.1977
▁kick	-10.2
▁follow	-10.2001
▁tens	-10.2002
▁gained	-10.2009
▁task	-10.202
▁referendum	-10.202
▁treasuries	-10.202
▁orlando	-10.202
▁tells	-10.2024
▁anyone	-10.2025
▁suite	-10.2026
▁par	-10.2028
battled	-10.203
▁aside	-10.2058
▁hour	-10.2062
▁gov	-10.2063
▁sentiment	-10.2068
▁drew	-10.2068
▁espn	-10.2068
▁anything	-10.2068
▁dividend	-10.2068
▁opponents	-10.2072
di	-10.2087
▁networking	-10.2092
▁38	-10.2102
▁del	-10.2102
▁bitter	-10.2103
▁holes	-10.2104
▁fined	-10.2105
▁highly	-10.2109
▁pioneer	-10.2114
▁controversy	-10.2115
▁mclennan	-10.2115
▁presence	-10.2115
▁antonio	-10.2117
▁overhaul	-10.2117
▁pilot	-10.2119
making	-10.2123
▁southeast	-10.2138
▁arena	-10.2141
▁predicted	-10.2145
▁peer	-10.2146
▁pirates	-10.215
▁spin	-10.2154
▁bronze	-10.2163
▁convoy	-10.2163
▁stopped	-10.2164
▁helicopter	-10.2166
▁insurgent	-10.2168
▁knew	-10.2168
▁cameras	-10.2171
▁impose	-10.2171
▁transfer	-10.218
▁amount	-10.2185
ja	-10.2195
av	-10.22
▁blamed	-10.2201
▁suggests	-10.2208
▁ceremony	-10.2211
▁jean	-10.2211
▁ryan	-10.2212
▁assembly	-10.2213
▁illinois	-10.2213
▁conduct	-10.2214
▁provided	-10.222
▁mi	-10.2223
▁mini	-10.2223
▁calm	-10.2225
▁vikings	-10.2225
ah	-10.2245
▁await	-10.2246
▁5-	-10.2252
ish	-10.2253
▁carrie	-10.2254
▁subject	-10.226
▁maryland	-10.2262
▁downloads	-10.2265
▁dc	-10.2265
▁ensure	-10.2273
▁accounts	-10.2284
10	-10.229
▁apparent	-10.2295
ey	-10.2299
▁trust	-10.23
▁hotels	-10.2303
▁hollinger	-10.2308
▁knicks	-10.2308
▁longhorn	-10.2312
▁qualifier	-10.2313
▁newsfactor	-10.2316
▁coca	-10.2319
▁reforms	-10.2337
hu	-10.2349
▁coaches	-10.2351
▁retreat	-10.2357
▁55	-10.2362
▁mining	-10.2367
▁talking	-10.2371
▁boxing	-10.2378
ir	-10.2381
▁hassan	-10.2391
▁fierce	-10.2393
▁agents	-10.2397
▁headquarters	-10.2406
▁however	-10.2409
▁true	-10.2413
▁xbox	-10.2422
▁shoulder	-10.2431
▁blu	-10.2434
▁ousted	-10.244
▁austria	-10.2441
▁kazaa	-10.2455
▁affect	-10.246
▁las	-10.246
▁cancel	-10.2461
ip	-10.2461
▁ocean	-10.2463
▁climbed	-10.2465
▁bids	-10.2465
▁larger	-10.2469
po	-10.2469
▁brands	-10.2471
▁warnings	-10.2485
▁returning	-10.2486
▁protests	-10.2493
▁easier	-10.2505
▁extreme	-10.2505
▁infrastructure	-10.2505
▁mauresmo	-10.2505
▁northeast	-10.2507
▁entry	-10.2508
▁cannot	-10.2508
awaited	-10.2516
gb	-10.2518
▁engineer	-10.255
▁chavez	-10.2554
▁docomo	-10.2554
▁90	-10.2557
▁jim	-10.2561
▁casino	-10.2566
▁gun	-10.2569
-1	-10.2571
▁brings	-10.2572
meter	-10.2577
▁indians	-10.2584
▁wonder	-10.2592
▁respond	-10.2592
▁sentence	-10.2596
ten	-10.2598
▁palace	-10.2604
▁cheney	-10.2605
▁harmony	-10.2606
▁closely	-10.2606
▁equity	-10.2606
▁promote	-10.2611
▁pounds	-10.2622
▁fires	-10.2622
▁cal	-10.2623
▁guide	-10.2624
▁allies	-10.2627
▁measure	-10.2652
▁door	-10.2654
▁clemens	-10.2655
▁tsunami	-10.2655
▁stepped	-10.2658
if	-10.266
▁plants	-10.2663
ron	-10.2665
▁alternative	-10.2667
▁client	-10.2668
▁woes	-10.267
▁violat	-10.2672
▁anticipated	-10.2674
hit	-10.268
▁roundup	-10.269
▁seemed	-10.27
▁eclipse	-10.2705
▁glazer	-10.2705
▁penalty	-10.2705
▁osama	-10.2705
▁engineers	-10.2708
▁models	-10.271
▁dna	-10.2714
▁command	-10.2719
▁earn	-10.2721
▁manufacturers	-10.2727
▁maria	-10.2727
▁dominated	-10.2741
▁payments	-10.2742
▁rovers	-10.2742
card	-10.2742
▁worried	-10.2756
▁text	-10.2756
▁carl	-10.276
▁nec	-10.2764
▁10000	-10.2765
▁reduced	-10.2773
▁pleaded	-10.2774
▁successfully	-10.2777
▁rape	-10.2778
▁magic	-10.279
▁projects	-10.2792
▁whole	-10.2803
▁triumph	-10.2806
▁deutsch	-10.2807
▁raptors	-10.2807
▁beslan	-10.2807
▁crackdown	-10.2807
▁explosions	-10.2808
▁orange	-10.2809
▁distribution	-10.2809
▁palmone	-10.281
▁fails	-10.2812
▁meets	-10.2813
▁enable	-10.2818
▁publisher	-10.2825
like	-10.2826
▁solutions	-10.2829
▁suffering	-10.2834
▁feared	-10.2849
▁dominate	-10.2859
▁famous	-10.286
▁pledge	-10.2861
▁expanded	-10.2862
▁deploy	-10.2862
▁shipments	-10.2863
▁setback	-10.2874
▁backup	-10.2877
▁blog	-10.288
▁fit	-10.2886
tropical	-10.2887
ut	-10.2889
▁watched	-10.2904
▁emerging	-10.291
▁schumacher	-10.291
▁slipped	-10.291
▁couple	-10.2912
▁sweden	-10.2916
▁raiders	-10.2916
▁helens	-10.2921
▁favorite	-10.2926
▁medals	-10.2937
▁spurs	-10.2939
▁license	-10.2943
▁recover	-10.2944
000	-10.2944
qu	-10.2956
▁lab	-10.2961
▁providing	-10.2962
▁responsible	-10.2962
▁aviation	-10.2962
▁invasion	-10.2962
▁promise	-10.2963
▁backing	-10.2967
▁parents	-10.2968
▁remember	-10.2968
▁industries	-10.2969
▁owen	-10.2984
▁mother	-10.2985
▁movement	-10.2986
▁valley	-10.2989
▁commander	-10.299
▁bond	-10.2994
▁undergo	-10.2995
▁revolution	-10.2995
▁page	-10.3012
▁financing	-10.3014
▁charley	-10.3014
▁gartner	-10.3015
▁coal	-10.3015
▁imac	-10.3016
▁adopt	-10.3017
▁phishing	-10.3024
▁homeland	-10.3025
▁prospect	-10.3031
▁retired	-10.3033
▁heavyweight	-10.3033
▁horse	-10.3036
▁writer	-10.3044
os	-10.3057
▁clinton	-10.3066
▁families	-10.3066
▁manmohan	-10.3066
▁territory	-10.3066
▁subsidiary	-10.3066
maker	-10.3067
▁harry	-10.3067
▁imports	-10.3068
▁lowest	-10.3078
ending	-10.3079
level	-10.3081
▁pitched	-10.3084
▁repair	-10.3087
▁expert	-10.3088
▁busy	-10.3089
▁treat	-10.3099
hitting	-10.3115
▁trump	-10.3117
▁multiple	-10.3117
▁hamilton	-10.3119
▁agenda	-10.3119
▁remove	-10.3122
▁greatest	-10.3125
▁thatcher	-10.313
▁andre	-10.3131
▁described	-10.3136
▁delivered	-10.3137
▁initiative	-10.314
▁attract	-10.3146
▁felt	-10.3158
mer	-10.3165
▁learn	-10.3168
▁30-	-10.3171
▁seahawks	-10.3172
▁sluggish	-10.3172
▁possibility	-10.3172
▁relationship	-10.3172
▁regain	-10.3172
▁andrew	-10.3177
▁3000	-10.3183
▁ge	-10.319
▁rebound	-10.3193
▁investigators	-10.3193
▁spirit	-10.3194
ren	-10.3199
▁lure	-10.3207
▁plea	-10.3213
▁effective	-10.3218
▁celebrate	-10.3223
▁memphis	-10.3225
▁netscape	-10.3225
▁charlotte	-10.3225
▁produced	-10.3226
▁siemens	-10.3227
▁democrat	-10.3228
▁batter	-10.3229
▁anger	-10.3244
ci	-10.3249
▁individual	-10.3249
▁shareholder	-10.325
▁flaws	-10.3252
▁language	-10.3255
hour	-10.3266
▁usc	-10.3271
▁encourage	-10.3277
▁henry	-10.3278
▁insurers	-10.3279
▁phoenix	-10.3279
▁seem	-10.3286
qaeda	-10.3294
▁arrives	-10.3311
ig	-10.3314
▁justin	-10.3317
▁muslims	-10.3327
▁accus	-10.3329
▁boycott	-10.3332
▁hiring	-10.3332
▁pentagon	-10.3333
▁reality	-10.3337
▁compared	-10.3344
fire	-10.3346
rate	-10.3347
▁writes	-10.3348
▁monitor	-10.335
▁risks	-10.3374
▁funding	-10.3386
▁eisner	-10.3386
▁gasoline	-10.3386
▁safin	-10.3386
▁lakers	-10.3387
▁guinea	-10.3387
▁sometime	-10.3388
▁gateway	-10.3388
▁rome	-10.3393
▁landing	-10.3394
▁discovery	-10.3397
▁monthly	-10.34
▁estimated	-10.34
▁supplier	-10.3413
▁tap	-10.3417
▁prosecutor	-10.3418
▁reasons	-10.3419
▁illegally	-10.3421
▁positions	-10.3437
▁religious	-10.344
▁ballmer	-10.3441
pro	-10.3441
▁powers	-10.3444
▁competitive	-10.3447
▁contest	-10.3452
▁suggested	-10.3454
▁ratings	-10.3456
wood	-10.3458
▁maybe	-10.346
▁representatives	-10.3462
ring	-10.3464
▁payment	-10.3466
▁population	-10.3468
▁quake	-10.3469
▁separatist	-10.3469
▁merge	-10.3473
▁marine	-10.3481
▁stands	-10.3484
▁offices	-10.3492
▁earned	-10.3492
▁2007	-10.35
pa	-10.3503
hi	-10.3512
foot	-10.3512
▁beef	-10.3518
▁15-	-10.352
▁string	-10.3521
▁1-1	-10.3524
cing	-10.3545
▁itanium	-10.355
▁tobacco	-10.355
▁clothing	-10.355
▁radcliffe	-10.355
▁firing	-10.355
▁mln	-10.355
▁tivo	-10.355
▁bln	-10.355
▁optimistic	-10.3551
▁updates	-10.356
▁watching	-10.3593
▁sense	-10.3593
▁cases	-10.3595
▁patents	-10.3596
▁76	-10.36
▁competitors	-10.3601
▁advances	-10.3602
▁fossil	-10.3605
▁couldn	-10.3611
▁busch	-10.3613
oil	-10.3624
▁fashion	-10.3625
▁celtics	-10.3626
▁slowing	-10.3628
▁concerned	-10.363
▁gene	-10.3631
▁studio	-10.3639
▁handset	-10.3641
▁elected	-10.3648
san	-10.3652
▁worry	-10.3654
▁2008	-10.3657
▁lo	-10.3659
▁worse	-10.366
▁rumsfeld	-10.3661
▁commitment	-10.3661
▁anthony	-10.3662
▁tender	-10.3666
▁formally	-10.3675
▁wine	-10.3688
▁boosts	-10.3694
inch	-10.3694
▁prospects	-10.3695
▁weight	-10.3697
▁rolls	-10.3698
▁forum	-10.3698
▁ch	-10.3699
▁letter	-10.3702
▁4-	-10.3703
▁chapter	-10.3717
▁policies	-10.3717
▁gymnastics	-10.3717
▁confirms	-10.3717
▁curt	-10.3719
▁48	-10.372
▁demanding	-10.3737
sized	-10.3763
▁simple	-10.377
▁kremlin	-10.3773
▁margaret	-10.3773
▁particular	-10.3773
▁petroleum	-10.3773
▁followed	-10.3773
tic	-10.3788
▁quest	-10.3789
▁mc	-10.3792
▁settles	-10.3793
▁spy	-10.3793
▁influence	-10.3806
▁telescope	-10.3808
vo	-10.3813
▁aide	-10.3816
▁succeed	-10.3816
▁protesters	-10.3827
▁consortium	-10.3829
▁optimism	-10.3829
▁plenty	-10.3829
▁sirius	-10.383
▁materials	-10.383
▁abbey	-10.383
▁membership	-10.3831
▁slowdown	-10.3831
▁estate	-10.3833
▁witness	-10.3834
▁vision	-10.3835
50	-10.3835
▁ho	-10.3839
▁rolled	-10.3839
▁slash	-10.384
▁dust	-10.3846
les	-10.3847
che	-10.3854
▁reading	-10.3862
▁danger	-10.3866
▁nasdaq	-10.3867
▁speak	-10.387
▁$4	-10.387
▁currently	-10.3875
all	-10.3885
eyton	-10.3886
▁chechnya	-10.3886
▁czech	-10.3886
▁facility	-10.3886
▁female	-10.3886
▁assassination	-10.3886
▁vast	-10.3889
▁bankrupt	-10.3889
▁pool	-10.389
▁hopeful	-10.3891
▁harm	-10.3892
cbc	-10.3894
▁citizens	-10.3896
ung	-10.3897
▁euros	-10.3898
▁wizards	-10.3903
▁islands	-10.3915
los	-10.3916
▁write	-10.3918
▁reporters	-10.392
▁appointed	-10.3922
▁phil	-10.3934
▁targeted	-10.3938
▁ta	-10.3939
▁cavaliers	-10.3943
▁compensation	-10.3943
▁unprecedented	-10.3943
▁abbas	-10.3943
▁lycos	-10.3943
▁upbeat	-10.3947
▁require	-10.395
idg	-10.395
minute	-10.3951
▁$55	-10.3956
▁choose	-10.3957
▁sit	-10.396
▁$100	-10.3961
hal	-10.397
▁provides	-10.3981
▁operators	-10.3983
▁wage	-10.3986
▁immediate	-10.3988
▁meetings	-10.3994
▁thin	-10.3995
▁privately	-10.3997
▁complex	-10.4
▁davenport	-10.4001
▁garcia	-10.4001
▁unemployment	-10.4001
▁stephen	-10.4003
▁included	-10.4005
▁accepted	-10.4005
▁infringement	-10.4005
▁li	-10.4006
▁hi	-10.4007
▁offerings	-10.4009
▁pledg	-10.4013
▁formal	-10.4014
▁humans	-10.4024
▁struggled	-10.4026
▁modern	-10.4029
▁investigate	-10.4041
▁celtic	-10.4044
▁quiet	-10.4048
▁republicans	-10.405
que	-10.4055
▁rays	-10.4055
▁especially	-10.4059
▁mystery	-10.4059
▁munich	-10.4059
▁cellular	-10.4059
▁daniel	-10.406
ville	-10.4062
▁fame	-10.4063
▁friendly	-10.4083
▁astronomers	-10.4086
▁steam	-10.4091
▁aboard	-10.4097
▁ballot	-10.4098
▁appearance	-10.41
▁stronghold	-10.4101
▁jaguar	-10.4103
▁loan	-10.4106
▁allen	-10.411
▁cautious	-10.4117
▁pentium	-10.4117
▁transport	-10.4118
▁pushe	-10.4121
▁aren	-10.4125
▁quality	-10.4127
▁spotlight	-10.4131
▁crack	-10.4134
▁delivery	-10.4143
▁ally	-10.4149
▁doubles	-10.415
▁mad	-10.4158
▁resort	-10.4161
▁philippine	-10.4165
▁restore	-10.4165
ng	-10.4168
▁awarded	-10.4173
▁responsibility	-10.4176
▁arrests	-10.4178
▁northwest	-10.4179
▁craft	-10.418
▁committed	-10.4183
▁150	-10.4184
▁bcs	-10.4193
▁marked	-10.4195
▁exercise	-10.4196
ine	-10.4201
▁awards	-10.4202
gen	-10.4206
-7	-10.4207
▁stretch	-10.4209
▁struggles	-10.4213
▁storms	-10.4218
ber	-10.423
▁church	-10.423
▁trafford	-10.4234
▁depot	-10.4235
▁broncos	-10.4235
▁shown	-10.4237
▁rfid	-10.4238
▁feet	-10.4243
▁abandon	-10.4245
▁kenne	-10.4248
▁postponed	-10.4248
▁refugees	-10.4251
▁rams	-10.4259
▁stick	-10.4262
con	-10.4264
▁effects	-10.4264
▁shake	-10.4265
▁haven	-10.4278
▁adrian	-10.4287
▁0	-10.4288
▁peacekeepers	-10.4293
▁mcdonald	-10.4293
▁breakthrough	-10.4293
▁domain	-10.4294
▁creation	-10.4295
▁passing	-10.4298
tor	-10.4299
▁focused	-10.4304
usatoday	-10.4315
▁75	-10.4323
▁66	-10.4329
ahead	-10.4331
▁wire	-10.4334
▁philips	-10.4336
▁800	-10.4339
▁scene	-10.4341
▁trojan	-10.4342
▁ticket	-10.435
▁uses	-10.4352
▁garden	-10.4353
▁momentum	-10.4354
▁utility	-10.4355
▁engines	-10.4363
▁loans	-10.4367
▁connect	-10.437
▁$500	-10.4372
▁dick	-10.4372
zarqawi	-10.4374
phone	-10.4375
ors	-10.4386
▁style	-10.4389
▁ds	-10.44
▁doubts	-10.4401
▁1.0	-10.4402
▁console	-10.4406
▁recommend	-10.4412
▁pursue	-10.4413
▁iowa	-10.4413
▁copies	-10.4413
ak	-10.4416
▁honda	-10.4416
▁copy	-10.4416
den	-10.4419
sp	-10.4419
▁crm	-10.4422
▁warn	-10.4431
state	-10.4439
▁challenger	-10.4442
tan	-10.4447
▁organizations	-10.445
▁knows	-10.4451
▁strained	-10.4454
▁peru	-10.4459
▁wto	-10.4461
▁peak	-10.4464
mp	-10.4471
▁accord	-10.4471
▁supposed	-10.4473
▁1990	-10.4474
▁discover	-10.4474
▁2:	-10.448
▁wider	-10.4481
▁journalist	-10.4484
life	-10.4505
range	-10.451
▁determine	-10.4518
pping	-10.4519
▁meters	-10.4522
mi	-10.4531
▁starter	-10.4531
▁easily	-10.4533
▁barely	-10.4536
▁disk	-10.4537
▁wickets	-10.4542
▁insist	-10.4545
▁civilian	-10.459
▁employee	-10.4592
▁victim	-10.4592
▁ailing	-10.4597
▁versions	-10.4601
▁3-1	-10.4603
▁har	-10.4604
▁dark	-10.4604
▁engineering	-10.461
▁chad	-10.4612
▁bloody	-10.4622
iest	-10.4634
ix	-10.464
▁homered	-10.4646
▁sender	-10.4647
▁cells	-10.4647
▁attempts	-10.4648
▁battles	-10.4649
▁governments	-10.4652
▁kenya	-10.4653
▁eve	-10.4655
▁piece	-10.4656
▁murdoch	-10.4656
▁phillies	-10.4656
▁pricing	-10.4656
▁buffalo	-10.4657
▁integration	-10.4657
▁specific	-10.4658
▁rugby	-10.4658
▁buyout	-10.4667
▁handsets	-10.4681
▁grant	-10.4696
backed	-10.4697
▁marks	-10.47
▁pitching	-10.4702
▁hang	-10.4703
▁chemical	-10.4713
▁opponent	-10.4714
▁audio	-10.4717
▁capabilities	-10.4717
▁connecticut	-10.4717
▁eriksson	-10.4717
▁israelis	-10.4718
▁resistance	-10.4718
▁lunar	-10.4718
▁cheap	-10.4718
▁thanksgiving	-10.4719
▁veritas	-10.472
▁chargers	-10.472
▁birds	-10.4731
▁reds	-10.4732
▁neck	-10.4735
▁install	-10.4736
▁dip	-10.474
▁gay	-10.4745
▁picks	-10.4746
▁accuse	-10.4749
▁relatives	-10.4759
▁toys	-10.4763
▁praise	-10.477
▁ride	-10.4773
▁cloud	-10.4777
▁import	-10.4777
▁punch	-10.4778
▁producers	-10.4778
▁emissions	-10.478
▁angry	-10.478
▁swap	-10.478
▁apart	-10.4781
▁khartoum	-10.4781
▁guantanamo	-10.4781
▁disputed	-10.4786
▁carriers	-10.4796
money	-10.4805
▁rolling	-10.4813
▁fun	-10.4814
▁swing	-10.4819
▁nick	-10.4825
▁museum	-10.4842
▁insurer	-10.4843
▁deployment	-10.4843
▁luxury	-10.4843
▁freedom	-10.4844
▁swedish	-10.4846
▁nato	-10.4846
▁exporters	-10.4849
▁revised	-10.4854
▁confirm	-10.4856
▁material	-10.4862
▁existing	-10.4867
▁revenues	-10.487
former	-10.487
▁scale	-10.487
▁evolution	-10.4877
▁reign	-10.488
tr	-10.488
▁clients	-10.489
▁map	-10.4899
za	-10.4902
▁pollution	-10.4905
▁unusual	-10.4905
▁norway	-10.4906
▁library	-10.4907
▁bt	-10.4907
▁amsterdam	-10.4908
▁editor	-10.4908
president	-10.4922
▁teammates	-10.4927
▁ka	-10.4929
wa	-10.4938
▁slowed	-10.4944
▁titles	-10.4951
style	-10.496
▁ambassador	-10.4968
▁genocide	-10.4968
▁revamp	-10.4968
▁widespread	-10.4968
▁wisconsin	-10.4968
▁submarine	-10.4968
▁hughes	-10.4969
▁replacement	-10.497
▁ferrari	-10.4971
▁admits	-10.4972
ney	-10.4972
▁killer	-10.4976
▁lock	-10.4979
▁someone	-10.4984
▁panthers	-10.4993
▁celebrat	-10.4994
▁62	-10.5008
▁sexual	-10.5023
▁perform	-10.5027
▁dominant	-10.5032
▁pinochet	-10.5032
▁17-	-10.5032
▁interior	-10.5033
▁factories	-10.5033
▁employment	-10.5033
rsene	-10.5033
▁rice	-10.5036
▁shape	-10.5038
▁highlight	-10.5038
▁iron	-10.504
fa	-10.504
▁cat	-10.5044
▁emc	-10.5044
▁athletes	-10.5047
▁detained	-10.5049
stroke	-10.5049
▁reveal	-10.5053
final	-10.5057
well	-10.5061
▁lowered	-10.5061
▁stroke	-10.5072
io	-10.5077
ee	-10.5078
itting	-10.5081
▁granted	-10.5082
▁winners	-10.5087
▁heavily	-10.5096
▁christian	-10.5096
▁baby	-10.5097
▁blade	-10.5098
▁36	-10.5101
korea	-10.5105
▁fully	-10.5105
▁ha	-10.5106
▁everton	-10.5107
▁guy	-10.511
▁fail	-10.511
▁ro	-10.5121
taking	-10.5126
▁cnn	-10.5128
ese	-10.5139
▁steal	-10.5142
▁aggressive	-10.5148
▁asset	-10.515
▁600	-10.5156
▁bounce	-10.5157
▁activists	-10.516
▁portfolio	-10.5161
▁diamondbacks	-10.5161
▁wildlife	-10.5161
▁promising	-10.5162
▁settled	-10.5165
ize	-10.5165
▁laptop	-10.5165
▁sven	-10.5167
fl	-10.5171
har	-10.5176
▁cha	-10.5182
▁thrown	-10.5186
billion	-10.5187
▁chi	-10.5191
▁tel	-10.5193
▁sight	-10.5203
▁audit	-10.5207
▁owned	-10.5208
▁mar	-10.5214
▁visits	-10.5215
▁older	-10.5222
▁su	-10.5224
▁bloom	-10.5225
▁linebacker	-10.5226
▁milosevic	-10.5226
▁exhibition	-10.5226
▁victories	-10.5226
▁bangalore	-10.5227
▁relay	-10.5228
▁athletic	-10.5232
▁student	-10.5232
▁exec	-10.5238
▁identified	-10.5245
▁devil	-10.525
▁becomes	-10.5253
▁santa	-10.5256
shares	-10.5261
▁mutu	-10.528
▁learned	-10.5284
▁gra	-10.5288
▁coverage	-10.5292
▁february	-10.5292
▁khan	-10.5292
▁licensing	-10.5295
▁fixed	-10.5302
▁crashes	-10.5304
▁54	-10.5305
▁diplomatic	-10.5306
▁destroy	-10.5309
▁repeat	-10.5309
▁78	-10.531
▁respect	-10.531
ft	-10.5316
▁cuban	-10.5323
eme	-10.5323
▁shop	-10.5324
▁gop	-10.5327
▁proved	-10.5327
▁seriously	-10.5327
war	-10.5329
▁tout	-10.5342
▁lu	-10.5345
▁coaching	-10.5345
▁execs	-10.535
▁1999	-10.5357
▁paypal	-10.5357
▁kennedy	-10.5357
▁ra	-10.5357
▁napster	-10.536
▁abducted	-10.5365
▁idc	-10.5366
▁sc	-10.5366
▁ricky	-10.5366
▁beheaded	-10.5375
ag	-10.538
▁healthy	-10.5382
▁sink	-10.5384
place	-10.5392
▁ie	-10.5397
▁welcomed	-10.5398
han	-10.54
▁trials	-10.541
▁simply	-10.5423
▁equator	-10.5423
▁robust	-10.5423
▁billionaire	-10.5424
▁milwaukee	-10.5425
▁northeastern	-10.5426
▁pullout	-10.5427
▁cairo	-10.5427
▁endangered	-10.543
▁shadow	-10.5431
▁imf	-10.5436
▁shaq	-10.5438
▁ballots	-10.5439
25	-10.5443
▁hero	-10.5446
▁andreas	-10.5446
▁foreigners	-10.5453
▁stations	-10.5457
▁msft	-10.5458
▁lehman	-10.5472
ff	-10.5472
▁seasons	-10.5473
▁42	-10.5477
▁queen	-10.549
▁birth	-10.5492
itarian	-10.5493
▁visa	-10.5493
vendi	-10.5498
▁astronaut	-10.5502
▁kids	-10.5506
▁route	-10.5507
▁buyers	-10.551
▁ty	-10.551
▁combined	-10.5514
business	-10.5519
ang	-10.5521
▁mann	-10.5524
▁56	-10.5525
▁crowded	-10.5535
▁views	-10.5542
▁reveals	-10.5554
set	-10.5556
▁regime	-10.5556
▁cease	-10.5556
▁fool	-10.5556
▁conspiracy	-10.5557
▁pretty	-10.5557
▁lsu	-10.5557
▁taylor	-10.5559
▁indies	-10.5559
mond	-10.5566
▁51	-10.5567
▁opinion	-10.5569
eu	-10.5571
▁caution	-10.5576
▁mary	-10.5576
▁notes	-10.559
▁slips	-10.559
▁cow	-10.5591
▁mich	-10.5592
▁instruments	-10.5599
▁6-	-10.5604
▁67	-10.5611
▁marriage	-10.5624
▁orioles	-10.5624
▁switzerland	-10.5624
▁branson	-10.5624
▁polish	-10.5624
▁stunning	-10.5624
▁phase	-10.5626
versus	-10.5634
russian	-10.5637
▁pharmaceutical	-10.5641
▁document	-10.5642
▁sean	-10.5642
▁devastat	-10.5643
▁beaten	-10.5651
▁warm	-10.5654
▁walker	-10.5661
▁owens	-10.5664
▁else	-10.5674
▁stuff	-10.5692
deadliest	-10.5693
▁2012	-10.5693
▁severe	-10.5694
▁visitors	-10.5695
▁mull	-10.5695
▁exactly	-10.5696
we	-10.5698
▁grows	-10.5701
▁limits	-10.5702
▁searching	-10.5703
▁oust	-10.5704
work	-10.5705
▁conservative	-10.5708
▁volume	-10.5709
born	-10.5713
30	-10.5715
head	-10.5721
ob	-10.5723
▁rating	-10.5729
▁earthquakes	-10.5739
▁hammer	-10.5739
mmy	-10.5741
▁raids	-10.5752
▁rep	-10.5761
▁native	-10.5762
▁conway	-10.5763
▁juventus	-10.5764
▁unix	-10.5769
▁cheaper	-10.5771
pi	-10.5773
▁proposals	-10.5775
pe	-10.5779
▁village	-10.5782
▁jumps	-10.5782
▁bi	-10.5786
▁miners	-10.5787
▁determined	-10.579
▁69	-10.5795
▁contact	-10.5798
▁survivors	-10.5803
▁pledges	-10.5812
▁robot	-10.5812
▁races	-10.5825
ists	-10.5826
▁qb	-10.5826
▁identify	-10.583
▁insurgency	-10.583
▁lynch	-10.583
▁mourinho	-10.583
▁milestone	-10.583
▁hubble	-10.583
▁hub	-10.5833
▁ultimate	-10.5833
▁clock	-10.5834
▁acc	-10.5841
▁triple	-10.5842
▁violations	-10.5847
▁rover	-10.5852
▁sam	-10.5854
▁18-	-10.5854
▁bench	-10.5855
▁hoped	-10.5858
▁za	-10.5862
▁edg	-10.5867
▁criticiz	-10.5868
▁honor	-10.5869
▁44	-10.5869
▁surrounding	-10.587
peer	-10.5872
▁resign	-10.5873
▁notice	-10.5889
ni	-10.5893
▁sco	-10.5893
▁netflix	-10.5899
▁ovitz	-10.5899
▁privacy	-10.5899
▁revenge	-10.5899
▁finland	-10.5899
▁destruction	-10.59
▁mississippi	-10.5901
▁lebanese	-10.5901
▁jp	-10.5901
ett	-10.5902
▁actually	-10.5902
▁tested	-10.5907
▁lcd	-10.5909
▁weekly	-10.5911
▁organisation	-10.5917
▁capable	-10.5918
▁mortar	-10.592
▁forbes	-10.5929
port	-10.5935
ick	-10.5939
▁strain	-10.5942
▁64-	-10.5945
▁chen	-10.5946
▁ranks	-10.5946
▁note	-10.5946
.8	-10.5949
ory	-10.5949
ph	-10.5954
▁padres	-10.5969
▁fenway	-10.5969
▁lenovo	-10.5971
▁langer	-10.5971
▁brothers	-10.5973
▁ms	-10.5974
▁expensive	-10.5975
▁marion	-10.5979
▁questioned	-10.5986
bu	-10.5993
▁dump	-10.5997
▁20-	-10.6007
iff	-10.6008
▁feeling	-10.6021
▁addition	-10.6026
▁investments	-10.6027
▁congressional	-10.604
▁prominent	-10.604
▁samarra	-10.604
▁aziz	-10.604
▁intense	-10.604
▁outfielder	-10.604
▁pennsylvania	-10.604
▁impressive	-10.604
▁poland	-10.604
▁worked	-10.6044
▁corner	-10.6046
▁ja	-10.6055
▁treaty	-10.6058
▁stun	-10.606
▁yankee	-10.6063
▁musa	-10.6067
pl	-10.6081
▁politicians	-10.6081
▁jon	-10.6082
▁gaining	-10.6083
▁slower	-10.6084
▁exploit	-10.6085
▁scare	-10.6089
▁12-	-10.6089
▁finals	-10.6095
▁reserves	-10.6099
▁penn	-10.6108
▁encounter	-10.611
▁malicious	-10.611
▁poverty	-10.611
▁massacre	-10.6111
▁subsidies	-10.6111
▁patrick	-10.6111
▁nvidia	-10.6112
▁basic	-10.6115
▁button	-10.6116
ster	-10.6119
▁william	-10.6126
▁governing	-10.6127
▁47	-10.6139
▁alone	-10.6145
▁du	-10.6151
win	-10.6165
▁explain	-10.6166
fer	-10.6172
▁revive	-10.6172
▁eliminate	-10.6174
▁bright	-10.6176
▁processing	-10.6177
▁bengals	-10.6182
▁temporary	-10.6184
▁elite	-10.6185
king	-10.619
away	-10.6196
▁flow	-10.6198
▁quietly	-10.6198
▁changing	-10.6201
▁handle	-10.6203
screen	-10.6216
▁joy	-10.6218
▁rod	-10.6219
▁tourists	-10.6227
▁defended	-10.623
▁7-	-10.6239
▁scrap	-10.624
▁settlers	-10.6242
▁roma	-10.6248
▁normal	-10.6248
▁surg	-10.6249
▁bow	-10.625
▁harvard	-10.6254
▁catholic	-10.6255
▁mexican	-10.6255
▁berth	-10.6255
▁midfielder	-10.6256
▁dropping	-10.6256
▁southwest	-10.6256
▁minor	-10.6257
▁steroids	-10.6258
▁wta	-10.6259
▁baseman	-10.6261
▁affairs	-10.6277
▁gi	-10.6279
3)	-10.628
▁rental	-10.6283
▁reporter	-10.6287
profile	-10.6288
▁grip	-10.6294
▁counting	-10.6295
▁intended	-10.6302
ence	-10.6307
fine	-10.6307
▁thinking	-10.631
▁planets	-10.631
▁checks	-10.6312
146	-10.6313
free	-10.6325
▁spike	-10.6327
▁scottish	-10.6327
▁disarm	-10.6328
▁ethnic	-10.6329
▁hugo	-10.6329
▁invite	-10.6331
▁realnetworks	-10.6331
▁1/2	-10.6332
▁rivalry	-10.6334
▁waters	-10.6354
▁senator	-10.6355
▁gift	-10.6356
▁direction	-10.6357
some	-10.636
mobile	-10.636
ance	-10.636
valley	-10.6361
british	-10.6361
msft	-10.6361
▁hunting	-10.6369
▁lands	-10.637
▁economists	-10.6372
▁emerge	-10.6372
▁cl	-10.6387
▁recovered	-10.6394
▁pope	-10.6399
▁competing	-10.6399
▁swift	-10.6399
▁managing	-10.6399
▁electoral	-10.6399
▁daimlerchrysler	-10.64
▁belgium	-10.6401
▁dubai	-10.6402
▁artest	-10.6402
▁stood	-10.6403
▁ac	-10.6403
▁stolen	-10.6407
▁meant	-10.6411
▁urge	-10.6412
▁porn	-10.6416
▁arrive	-10.6418
▁falcons	-10.6418
▁gamers	-10.6422
rc	-10.643
▁demanded	-10.643
▁hip	-10.6431
▁mourning	-10.6434
▁rap	-10.6435
▁defender	-10.6454
▁exclusive	-10.6461
▁scam	-10.6463
lu	-10.647
▁buried	-10.6473
▁quarterfinals	-10.6473
▁easing	-10.6474
▁asking	-10.6475
▁wa	-10.6477
▁indicted	-10.648
ct	-10.6483
-8	-10.6486
▁newspapers	-10.6489
ratings	-10.649
▁disrupt	-10.6498
▁register	-10.6499
store	-10.65
▁dig	-10.65
▁farmers	-10.6501
▁establish	-10.6501
▁twin	-10.6506
▁teenager	-10.6507
▁da	-10.6508
food	-10.6509
▁complaint	-10.6512
▁fake	-10.6516
bl	-10.6522
▁telling	-10.6525
ec	-10.6525
▁pensions	-10.6525
▁ace	-10.6528
▁1.5	-10.6537
▁concessions	-10.6541
▁column	-10.6546
▁negative	-10.6547
▁captors	-10.6547
▁roster	-10.6547
▁kicked	-10.6548
▁workforce	-10.6549
▁urban	-10.6549
▁qantas	-10.6551
▁ntt	-10.6552
▁tensions	-10.6562
▁stalled	-10.6571
▁md	-10.6571
▁type	-10.6575
▁survived	-10.6576
▁guns	-10.6579
scale	-10.6581
▁oks	-10.6583
▁automaker	-10.6583
▁standing	-10.6585
▁destroyed	-10.6601
▁straw	-10.6602
▁locked	-10.6603
ball	-10.6606
▁37	-10.6608
▁$6	-10.6616
▁hasn	-10.6616
▁sat	-10.6618
▁syracuse	-10.6621
▁johan	-10.6622
▁minority	-10.6622
▁linger	-10.6623
▁icc	-10.6625
▁rockies	-10.6626
▁globe	-10.6628
doubleclick	-10.6628
▁swept	-10.6629
▁connections	-10.6633
▁quits	-10.6634
ino	-10.6638
▁dog	-10.6639
▁ne	-10.6644
▁intend	-10.6651
▁replaced	-10.6652
▁shortage	-10.6661
▁label	-10.6662
▁throwing	-10.667
▁moderate	-10.6684
▁84	-10.6688
▁weakness	-10.6695
▁audience	-10.6697
▁crystal	-10.6697
▁federation	-10.6697
▁chrysler	-10.6697
▁husband	-10.6697
▁twist	-10.6697
▁venus	-10.6697
▁comcast	-10.6697
▁society	-10.6697
▁ramallah	-10.6698
▁antivirus	-10.6698
▁maoist	-10.6699
▁arrival	-10.6699
▁$49	-10.67
▁stripped	-10.6701
▁seize	-10.6701
▁pour	-10.6709
▁tickets	-10.671
▁roman	-10.6724
liot	-10.6728
▁overcome	-10.6733
jazeera	-10.6734
▁attend	-10.6737
▁happened	-10.6741
▁tree	-10.6742
▁wars	-10.6744
▁enterprises	-10.6752
ill	-10.6752
▁recalled	-10.6757
ot	-10.6767
▁removed	-10.6768
▁conducted	-10.6772
▁ortiz	-10.6772
▁stockholm	-10.6773
▁enforcement	-10.6775
▁laid	-10.6775
▁jay	-10.6775
▁unrest	-10.6776
tra	-10.6786
▁gmail	-10.6789
▁draws	-10.6793
australia	-10.6795
▁pet	-10.6797
▁improvement	-10.6804
▁matchup	-10.6805
▁awaited	-10.683
▁chaos	-10.6834
bi	-10.6839
▁liberty	-10.6849
▁vulnerable	-10.6849
▁favre	-10.6849
▁urging	-10.6849
▁abroad	-10.6849
▁departure	-10.6849
▁prescription	-10.6849
▁medium	-10.6849
▁di	-10.6849
▁compound	-10.6849
▁ukrainian	-10.6852
town	-10.6854
▁suddenly	-10.6858
▁patches	-10.6858
▁collect	-10.6864
▁operate	-10.6871
▁controls	-10.6881
▁anwar	-10.6885
min	-10.6886
cnn	-10.6888
kin	-10.6888
▁settlements	-10.6899
▁adam	-10.6901
▁cite	-10.6902
▁forget	-10.6903
▁diet	-10.6904
hander	-10.6907
▁brad	-10.6907
▁employers	-10.6917
▁finale	-10.6922
▁fat	-10.6922
▁pos	-10.6924
▁chair	-10.6925
ated	-10.6925
▁junk	-10.6925
▁nuggets	-10.6926
▁treo	-10.6926
▁robinson	-10.6926
▁jacksonville	-10.6926
▁supermarket	-10.6927
▁electricity	-10.6927
▁mvp	-10.6929
cal	-10.6936
▁fleet	-10.6942
▁$8	-10.6942
▁predict	-10.6945
▁ku	-10.6945
▁hailed	-10.6946
▁trapped	-10.6948
▁5000	-10.6949
▁rough	-10.6958
▁debuts	-10.6959
▁disclosed	-10.6966
▁standings	-10.6972
▁signals	-10.6972
▁snap	-10.6972
▁pages	-10.6975
▁troop	-10.6975
▁angel	-10.6975
▁nears	-10.6981
▁integrate	-10.6987
40	-10.6988
▁wholesale	-10.6989
▁refuse	-10.6989
▁cambodia	-10.6989
▁$1.	-10.6994
▁bloc	-10.6995
00	-10.6997
▁hikes	-10.7
▁marking	-10.7001
▁berlusconi	-10.7003
▁ghraib	-10.7003
▁pyongyang	-10.7003
▁salvation	-10.7003
▁spokeswoman	-10.7003
▁tribunal	-10.7003
▁penalties	-10.7003
▁chancellor	-10.7006
eastern	-10.7006
rek	-10.7011
▁cy	-10.7011
▁cd	-10.7012
▁seeing	-10.7013
ating	-10.7014
▁exceed	-10.7018
▁places	-10.702
citing	-10.7023
▁cr	-10.7026
▁ambitions	-10.7028
▁gen	-10.7029
▁seats	-10.7038
terror	-10.7039
ao	-10.7042
security	-10.7043
school	-10.7043
▁incident	-10.7048
▁missiles	-10.7064
izing	-10.707
ware	-10.7071
▁waves	-10.7072
▁sting	-10.7074
▁wr	-10.708
mitsubishi	-10.7081
▁louisiana	-10.7081
▁overshadow	-10.7081
▁soyuz	-10.7081
▁holmes	-10.7081
▁grizzlies	-10.7081
▁latin	-10.7081
▁various	-10.7082
▁verge	-10.7082
▁louisville	-10.7083
▁guidant	-10.7083
▁baker	-10.7084
▁inventory	-10.7087
▁abc	-10.709
▁7-5	-10.7091
ps	-10.7097
linked	-10.7098
▁si	-10.7099
▁attendants	-10.7099
ned	-10.71
▁eric	-10.7102
▁embrace	-10.7106
▁ships	-10.7119
▁leap	-10.712
▁independence	-10.7121
▁doctor	-10.713
▁guerrillas	-10.7131
▁sap	-10.7137
▁upon	-10.7142
mon	-10.7145
▁rwanda	-10.7147
▁balance	-10.7151
▁react	-10.7153
▁sweet	-10.7158
▁physical	-10.716
▁souness	-10.716
▁withdrew	-10.716
▁hamstring	-10.716
▁hague	-10.716
▁valuable	-10.7161
▁outcome	-10.7161
▁legend	-10.7162
▁eventually	-10.7162
▁farm	-10.7163
▁speedway	-10.7164
▁bidding	-10.7165
▁icon	-10.7166
▁yanks	-10.7191
market	-10.7198
▁nc	-10.7203
media	-10.7204
▁featur	-10.7206
▁constitution	-10.7221
▁declare	-10.7222
▁feed	-10.7224
▁jamaica	-10.7225
▁kuwait	-10.7232
▁distance	-10.7232
▁merril	-10.7236
▁posting	-10.7238
▁laboratory	-10.7239
▁alaska	-10.7239
▁zook	-10.7241
▁clearing	-10.7241
▁standoff	-10.7243
handed	-10.7247
▁haitian	-10.7249
house	-10.7249
▁rapidly	-10.7253
trick	-10.7272
▁rapid	-10.7274
▁trees	-10.7279
▁finishing	-10.728
▁friend	-10.728
hook	-10.7281
▁champ	-10.7289
ate	-10.7296
▁tip	-10.7297
torn	-10.7297
chip	-10.7298
▁pat	-10.7309
▁complet	-10.7309
▁vital	-10.7309
▁recalls	-10.7315
▁replac	-10.7315
▁savings	-10.7319
▁pitcairn	-10.7319
▁reputation	-10.7319
▁cycling	-10.7319
▁fingerprint	-10.7319
▁mysterious	-10.732
▁volkswagen	-10.7321
▁tycoon	-10.7321
▁hedge	-10.7323
▁click	-10.7325
▁fines	-10.7326
▁weighed	-10.7327
▁deny	-10.733
▁freshman	-10.7332
▁mci	-10.7346
▁longest	-10.7348
▁certainly	-10.7351
▁arch	-10.7352
ya	-10.7353
▁directly	-10.7363
▁nuke	-10.7371
▁sort	-10.7372
▁boys	-10.7373
▁rounds	-10.7377
ala	-10.7377
▁pan	-10.738
▁master	-10.7381
▁gathering	-10.7383
aa	-10.7384
▁desperate	-10.7388
▁rim	-10.7389
▁equal	-10.739
called	-10.7399
▁meteor	-10.74
▁coffee	-10.74
▁earnhardt	-10.74
▁intellectual	-10.74
▁montgomerie	-10.74
▁aerospace	-10.74
▁advice	-10.74
cy	-10.7401
▁transportation	-10.7401
▁animals	-10.7403
▁mgm	-10.7404
▁updated	-10.7406
▁happen	-10.7408
▁understand	-10.7409
▁3-2	-10.7412
▁plunged	-10.7413
▁eds	-10.7413
▁terry	-10.7418
▁negotiators	-10.742
▁roy	-10.7425
▁brewers	-10.7426
▁moss	-10.7426
▁renew	-10.7428
▁born	-10.7429
ripped	-10.7446
▁observers	-10.7447
▁stakes	-10.7449
▁teammate	-10.7461
▁y	-10.7462
▁sights	-10.7462
ani	-10.7463
ise	-10.747
▁santander	-10.7481
▁madison	-10.7482
▁serb	-10.7482
▁involvement	-10.7482
▁batteries	-10.7483
▁promotion	-10.7484
▁birmingham	-10.7484
▁77	-10.749
▁damaged	-10.7492
▁govt	-10.75
▁reliever	-10.75
▁rick	-10.7502
her	-10.7503
▁buildings	-10.7508
▁belarus	-10.7509
▁reopen	-10.7515
zif	-10.7521
ru	-10.7523
▁tougher	-10.7525
▁shed	-10.7525
china	-10.7527
▁99	-10.7536
▁ni	-10.754
▁none	-10.7541
-5	-10.7554
▁cruise	-10.7557
▁delegation	-10.7563
▁warplanes	-10.7563
▁battl	-10.7563
▁ernie	-10.7563
▁cloning	-10.7564
▁kreme	-10.7564
▁uncertainty	-10.7564
▁bruce	-10.7564
▁xm	-10.7566
▁fbi	-10.7566
▁melbourne	-10.757
▁drama	-10.7576
▁hawks	-10.7576
▁divided	-10.7581
▁specialist	-10.7586
▁grabb	-10.7593
▁malaysian	-10.7596
▁tanks	-10.7598
▁estimate	-10.7601
▁lowe	-10.7601
view	-10.7603
▁pocket	-10.7622
-4	-10.7625
▁43	-10.7625
▁vol	-10.7628
▁worms	-10.7631
▁romania	-10.7631
our	-10.7631
▁produc	-10.7635
▁rein	-10.7637
▁genetic	-10.764
▁author	-10.7644
▁jpeg	-10.7646
▁libraries	-10.7646
▁mercury	-10.7646
▁unchanged	-10.7646
▁swimming	-10.7646
▁atmosphere	-10.7647
▁bangkok	-10.7648
▁availability	-10.7648
▁16-	-10.7648
▁filmmaker	-10.7648
▁meyer	-10.765
▁supporting	-10.7651
▁indicated	-10.7654
▁saints	-10.7661
▁misses	-10.7667
▁cape	-10.7669
▁closest	-10.7675
▁clues	-10.7679
▁kings	-10.7681
▁bc	-10.7683
▁remov	-10.7687
low	-10.7689
computerworld	-10.7691
▁jointly	-10.7695
▁singles	-10.7703
▁medicine	-10.7706
▁error	-10.7707
▁guards	-10.7708
▁grace	-10.7717
▁compromise	-10.7719
▁reader	-10.7727
▁dominance	-10.7729
▁hybrid	-10.7729
▁receiving	-10.7729
▁avert	-10.773
▁blackburn	-10.773
▁aviv	-10.7731
▁greenhouse	-10.7731
▁belgian	-10.7733
▁ichiro	-10.7733
▁hunger	-10.7733
▁gu	-10.7734
▁dealers	-10.7735
ell	-10.7735
▁shawn	-10.7737
▁chipmaker	-10.7745
▁250	-10.7748
▁td	-10.7748
▁eta	-10.7751
▁bat	-10.7751
▁delivers	-10.7762
04	-10.7762
▁landed	-10.7764
▁judges	-10.7773
biggest	-10.7775
▁syrian	-10.7776
▁dot	-10.7779
party	-10.7781
▁expenses	-10.7785
▁fatal	-10.7789
▁fee	-10.779
▁scheme	-10.7791
▁surprised	-10.7792
nic	-10.7795
▁improper	-10.78
tu	-10.7803
tv	-10.7804
▁prior	-10.7813
▁imminent	-10.7813
▁junior	-10.7813
▁suzuki	-10.7813
▁hornets	-10.7813
▁yellow	-10.7813
▁readie	-10.7814
▁steer	-10.7814
▁damascus	-10.7814
▁aristide	-10.7816
▁necessary	-10.7816
▁trademark	-10.7817
▁mistakes	-10.7818
▁bail	-10.7821
▁lifting	-10.7823
▁jonath	-10.7823
▁bayern	-10.7829
▁islam	-10.7832
▁alter	-10.7837
▁dent	-10.7838
▁answers	-10.7838
▁rankings	-10.7845
▁erupted	-10.7848
nl	-10.7853
▁patrol	-10.7855
bound	-10.7857
england	-10.786
manchester	-10.7861
▁cbs	-10.7863
▁diplomat	-10.7866
▁usatoday	-10.7868
▁$7	-10.787
▁suspicion	-10.7877
▁tighten	-10.7878
▁defect	-10.7893
▁contractor	-10.7896
▁pursuit	-10.7898
▁ramirez	-10.7898
▁freddie	-10.7898
▁cos	-10.7899
▁volcano	-10.7905
▁dial	-10.7906
▁venezuelan	-10.7912
▁recorded	-10.7915
▁$24	-10.7921
▁significantly	-10.7933
▁condemn	-10.7935
▁pill	-10.7938
▁declines	-10.7943
▁na	-10.7946
▁mate	-10.7946
three	-10.7946
▁formed	-10.7956
▁11-	-10.7959
▁aides	-10.7963
▁grenade	-10.7964
▁waste	-10.7966
▁floor	-10.7967
south	-10.7975
▁embargo	-10.7984
▁rodriguez	-10.7984
▁vulnerability	-10.7984
▁zurich	-10.7984
▁crunch	-10.7984
▁nature	-10.7984
▁shootout	-10.7984
▁drought	-10.7985
▁popularity	-10.7988
ev	-10.7989
▁publicly	-10.7991
▁7000	-10.7996
▁lying	-10.7999
▁acquir	-10.7999
▁acknowledged	-10.7999
▁riot	-10.8008
▁rossi	-10.8008
▁46	-10.8014
blew	-10.8017
▁bound	-10.8022
▁alleg	-10.8023
record	-10.8032
tax	-10.8042
▁slowly	-10.8046
owned	-10.8052
▁68	-10.8055
▁items	-10.8057
▁2006.	-10.8062
lie	-10.8063
▁adjust	-10.8069
▁dialogue	-10.807
▁negotiating	-10.807
▁symbian	-10.807
▁animation	-10.807
▁stanley	-10.807
▁videotape	-10.807
▁stanford	-10.807
▁permission	-10.807
▁firewall	-10.8071
▁offshore	-10.8071
▁aaron	-10.8071
▁portland	-10.8071
▁islamist	-10.8072
▁taipei	-10.8072
▁inaugura	-10.8074
▁length	-10.8075
▁dave	-10.8077
▁troy	-10.8077
▁juan	-10.8079
▁disappointed	-10.8081
▁dawn	-10.8082
leaguer	-10.8083
▁clinched	-10.8085
▁upgrades	-10.8087
▁mel	-10.8089
▁mis	-10.809
pti	-10.8092
▁persuade	-10.8094
▁mice	-10.8099
▁royals	-10.8099
▁$15	-10.8101
▁63	-10.8111
▁shoot	-10.8114
▁tear	-10.8116
dy	-10.8117
▁ce	-10.8118
▁app	-10.8129
▁print	-10.8129
▁please	-10.8131
▁repeated	-10.8133
▁assists	-10.8141
▁24-	-10.8145
▁permanent	-10.8146
▁villa	-10.8147
▁sorenstam	-10.8157
▁blind	-10.8157
▁panama	-10.8157
▁ericsson	-10.8157
▁basis	-10.8157
▁vulnerabilities	-10.8157
▁anderson	-10.8157
▁rail	-10.8158
▁qualcomm	-10.8158
▁lobby	-10.8158
▁ramp	-10.8163
mar	-10.8166
ped	-10.8167
▁closes	-10.8171
▁monitoring	-10.8173
▁viacom	-10.8183
came	-10.8185
▁wouldn	-10.8193
▁obtain	-10.8196
▁meaning	-10.8197
▁nz	-10.8197
▁mix	-10.8202
▁correct	-10.8203
▁52	-10.8208
gn	-10.8219
▁escalat	-10.822
▁spoke	-10.8231
▁imp	-10.8232
▁article	-10.8236
▁uncertain	-10.8244
▁alabama	-10.8244
▁alexander	-10.8244
▁funeral	-10.8244
▁klitschko	-10.8244
▁yudhoyono	-10.8244
▁presidency	-10.8245
▁4-0	-10.8246
▁sep	-10.8246
▁occupied	-10.8247
▁fedex	-10.8247
▁uprising	-10.825
▁skipper	-10.825
▁chosen	-10.8256
▁fallen	-10.8269
▁bali	-10.8276
▁jar	-10.8279
▁prisoner	-10.8282
▁talent	-10.8285
member	-10.8292
▁stable	-10.8292
▁condemned	-10.8294
terrorism	-10.8295
▁stops	-10.8315
▁slight	-10.8316
power	-10.8319
more	-10.832
▁adopted	-10.8325
▁lyon	-10.8329
▁1980	-10.8331
▁casualties	-10.8333
▁kiev	-10.8333
▁linds	-10.8333
▁cornerback	-10.8334
▁breeders	-10.8334
90	-10.8335
dell	-10.8335
ina	-10.8338
▁trucks	-10.8346
▁slum	-10.8346
▁speaking	-10.8347
▁description	-10.8348
zi	-10.8352
▁films	-10.836
▁neal	-10.836
▁eases	-10.8361
▁costly	-10.8365
bank	-10.8369
▁ata	-10.837
▁releas	-10.8371
▁ger	-10.8373
▁laser	-10.8376
▁$12	-10.8377
▁tha	-10.8378
▁stays	-10.8381
▁spa	-10.8384
running	-10.8385
corp	-10.8387
▁elect	-10.8387
share	-10.8388
▁odds	-10.8395
▁clears	-10.8399
▁57	-10.8399
▁slid	-10.841
▁favourite	-10.841
▁active	-10.8415
tel	-10.8417
▁lash	-10.8418
▁branch	-10.8419
ford	-10.8422
▁facilities	-10.8422
▁fischer	-10.8422
▁ontario	-10.8422
▁renault	-10.8422
▁telephony	-10.8422
▁elsewhere	-10.8422
▁breach	-10.8422
▁chicken	-10.8422
▁promot	-10.8424
▁ownership	-10.8424
▁innovation	-10.8424
▁malcolm	-10.8425
▁purdue	-10.8425
▁kathmandu	-10.8426
▁ot	-10.8428
▁combine	-10.8434
▁1.3	-10.8439
yad	-10.8439
▁concluded	-10.844
▁crossing	-10.8444
▁highway	-10.8448
▁sustained	-10.8449
▁weighs	-10.8453
▁ar	-10.8457
▁cheer	-10.846
▁girls	-10.8462
▁implement	-10.8463
▁holidays	-10.8465
motive	-10.8474
▁collapsed	-10.8475
▁restate	-10.8476
▁mavericks	-10.8479
class	-10.8481
▁nor	-10.8481
▁select	-10.8484
car	-10.8485
▁bases	-10.8491
rop	-10.8491
▁pen	-10.8494
▁slashed	-10.8498
▁comment	-10.8507
▁volatil	-10.8512
▁smoke	-10.8512
▁calendar	-10.8512
▁custody	-10.8512
santiago	-10.8512
▁guidance	-10.8512
▁harrington	-10.8512
room	-10.8514
▁unique	-10.8517
▁gdp	-10.8517
▁clinical	-10.8517
▁telecoms	-10.8518
▁written	-10.8519
▁cargo	-10.852
▁damages	-10.8521
▁wish	-10.8522
▁experimental	-10.8523
01	-10.8528
▁homers	-10.853
▁battery	-10.8533
▁ranked	-10.854
▁detect	-10.8549
▁outline	-10.8554
known	-10.8558
▁stone	-10.856
pakistan	-10.8562
▁cooper	-10.8563
spyware	-10.8565
▁detainees	-10.8573
▁blocks	-10.858
▁symbol	-10.8581
▁trio	-10.8584
▁ambitious	-10.8603
▁opteron	-10.8603
▁conrad	-10.8604
▁spurrier	-10.8604
▁blockade	-10.8604
▁multimedia	-10.8605
▁culture	-10.8606
▁probes	-10.8606
▁charging	-10.8608
▁9/11	-10.8608
▁bhp	-10.8609
▁unknown	-10.8612
▁bulls	-10.8616
▁apply	-10.8617
breaking	-10.8621
▁batting	-10.8626
east	-10.8631
randy	-10.8634
▁beheading	-10.8637
▁chat	-10.8644
▁hosts	-10.8647
maccentral	-10.8657
▁required	-10.8659
▁spurr	-10.8666
▁mistake	-10.8674
▁bio	-10.8676
▁negotiate	-10.8677
▁tire	-10.8683
▁bag	-10.8685
▁steroid	-10.869
▁celebration	-10.869
▁reaction	-10.8691
▁canceled	-10.8692
▁lived	-10.8692
▁clippers	-10.8695
▁false	-10.8695
▁starbucks	-10.8695
▁jazz	-10.8695
▁execution	-10.8695
▁pierce	-10.8696
▁durable	-10.8696
▁mickelson	-10.8696
▁pad	-10.8696
▁tendulkar	-10.8696
ub	-10.8698
▁kurt	-10.87
▁valencia	-10.87
▁peyton	-10.8701
▁0.1	-10.8705
▁theory	-10.8708
▁soars	-10.8709
▁exporter	-10.871
not	-10.8714
▁bold	-10.872
▁whales	-10.8729
▁parliamentar	-10.8734
▁raw	-10.8739
lan	-10.8748
▁metal	-10.8748
▁se	-10.8751
▁warriors	-10.8755
▁semifinal	-10.8762
▁cia	-10.8765
ger	-10.8769
br	-10.877
▁bombers	-10.8776
▁recruit	-10.878
▁kidnapping	-10.8783
▁animal	-10.8784
▁drawn	-10.8785
▁sand	-10.8785
▁cellphone	-10.8786
▁abrupt	-10.8788
▁manhattan	-10.8788
▁timberwolves	-10.8788
▁viktor	-10.8788
▁steep	-10.8788
▁delaware	-10.8788
▁urgent	-10.8788
▁exploration	-10.8789
upert	-10.879
▁wealth	-10.879
▁austin	-10.8791
▁tottenham	-10.8792
▁trans	-10.8793
▁listed	-10.8798
▁ira	-10.8802
▁learning	-10.8804
around	-10.8808
▁integrated	-10.8809
▁strongest	-10.8811
▁thom	-10.8816
▁log	-10.8818
▁moments	-10.8819
▁roe	-10.882
-13	-10.882
▁blocked	-10.8831
ef	-10.8844
▁72	-10.8857
▁plug	-10.8859
▁ian	-10.8861
australian	-10.8862
▁6-0	-10.8862
▁aids	-10.8863
hard	-10.8872
▁maine	-10.8872
ari	-10.8873
▁yield	-10.8879
▁jeeves	-10.8881
▁journey	-10.8881
▁lucrative	-10.8881
▁asylum	-10.8881
▁stepping	-10.8881
▁wimax	-10.8882
▁kingdom	-10.8882
▁unanimous	-10.8882
▁nightmare	-10.8882
▁patient	-10.8883
▁palmsource	-10.8883
▁siebel	-10.8883
▁stability	-10.8884
▁dhaka	-10.8884
▁sensitive	-10.8884
▁mumbai	-10.8886
▁burn	-10.889
iyad	-10.889
▁psp	-10.8894
-3	-10.8898
▁recovering	-10.89
▁tracks	-10.89
▁hyper	-10.8903
▁reduc	-10.8905
▁sacked	-10.8908
▁tracking	-10.8914
berg	-10.8915
▁dar	-10.8919
▁stamp	-10.8924
right	-10.8938
▁vince	-10.895
▁hal	-10.8959
▁appoint	-10.8964
▁harris	-10.8972
▁suing	-10.8974
▁textile	-10.8974
▁concert	-10.8975
▁conglomerate	-10.8975
▁example	-10.8975
▁studies	-10.8975
▁subscription	-10.8975
▁turmoil	-10.8975
▁unfair	-10.8975
▁absence	-10.8975
▁telstra	-10.8975
▁arbitration	-10.8975
▁slammed	-10.8975
▁disappointment	-10.8976
▁circulation	-10.8976
▁norwegian	-10.8976
▁spectacular	-10.8976
▁mlb	-10.8976
▁brett	-10.8976
▁survival	-10.8977
▁jerem	-10.8977
▁striking	-10.8978
▁vancouver	-10.8978
▁krispy	-10.8979
▁tourism	-10.8979
▁outbreak	-10.8979
▁grab	-10.898
▁hitachi	-10.8981
▁questionable	-10.8982
▁portal	-10.8983
▁hundred	-10.8983
▁impos	-10.8986
▁electrical	-10.8992
▁seal	-10.8994
▁rwandan	-10.8994
▁rocks	-10.8996
▁charter	-10.9003
but	-10.9009
om	-10.9011
mode	-10.9013
▁glen	-10.9018
▁transactions	-10.902
▁surrender	-10.9022
▁liquid	-10.9024
▁fred	-10.9027
▁wearing	-10.9028
▁sour	-10.9029
care	-10.9037
▁beer	-10.9039
▁bug	-10.9042
▁components	-10.9052
▁explode	-10.9053
▁shower	-10.9055
▁woo	-10.9057
▁bear	-10.9058
▁resumed	-10.9059
▁carries	-10.9065
▁loyal	-10.9069
▁liberal	-10.907
▁buoy	-10.907
▁crawford	-10.9071
▁empire	-10.9071
▁glory	-10.9071
▁identification	-10.9071
▁conoco	-10.9071
▁referee	-10.9071
▁conviction	-10.9071
▁bernie	-10.9071
▁ultra	-10.9071
▁neighbor	-10.9072
▁abuja	-10.9072
▁gunners	-10.9072
▁activist	-10.9073
▁rafael	-10.9076
▁mild	-10.9077
▁jamal	-10.908
bar	-10.9082
▁travelers	-10.9088
▁romanian	-10.9091
▁bankers	-10.9101
80	-10.9104
▁dress	-10.9104
▁greet	-10.9104
▁roar	-10.9105
▁wired	-10.911
▁maccentral	-10.9111
burg	-10.9112
▁adapters	-10.9114
wing	-10.9119
definition	-10.9129
ler	-10.9132
sbc	-10.9132
▁established	-10.9133
ver	-10.9134
shell	-10.9135
iv	-10.9141
▁pose	-10.9149
▁earns	-10.9152
▁schwa	-10.9155
▁professionals	-10.9158
▁experiment	-10.9158
▁wash	-10.9161
4)	-10.9163
uille	-10.9165
▁bluetooth	-10.9167
▁mcnair	-10.9167
▁argentine	-10.9167
▁dreamworks	-10.9167
▁dubbed	-10.9167
▁slugger	-10.9167
▁salary	-10.9167
ization	-10.9168
▁sacramento	-10.9168
▁peterson	-10.9169
▁cartel	-10.9171
nation	-10.9172
▁qwest	-10.9174
▁fights	-10.9175
chi	-10.9176
signed	-10.918
▁sidelined	-10.918
▁llc	-10.9181
▁ram	-10.9185
▁slain	-10.9185
▁publishing	-10.9193
▁$53	-10.9195
▁flooding	-10.92
▁kit	-10.9203
▁drawing	-10.9204
sen	-10.9206
india	-10.9207
cl	-10.9209
▁feels	-10.9212
▁goldman	-10.9215
▁tradition	-10.9222
ki	-10.9222
google	-10.9227
▁introduc	-10.9229
▁explore	-10.9244
▁abandoned	-10.9245
▁solve	-10.9246
▁rescuer	-10.9251
cu	-10.9254
▁survive	-10.9255
ov	-10.9256
▁21-	-10.926
cc	-10.9261
▁ibrahim	-10.9264
▁lukoil	-10.9264
▁screensaver	-10.9264
▁southampton	-10.9264
▁temporarily	-10.9264
▁vonage	-10.9264
▁generic	-10.9264
▁universe	-10.9264
▁pennington	-10.9264
▁spill	-10.9265
▁pride	-10.9265
▁wimbledon	-10.9266
▁shutout	-10.9267
▁disruptions	-10.9269
▁mcafee	-10.927
▁fifa	-10.927
▁communication	-10.9271
▁serie	-10.9272
▁policemen	-10.9278
leading	-10.9284
▁saving	-10.9285
▁buzz	-10.9286
▁shortly	-10.9289
▁paula	-10.9306
▁structure	-10.9306
▁gp	-10.9307
▁advocates	-10.9308
▁creditors	-10.931
ou	-10.9317
▁pump	-10.9317
▁criticize	-10.9322
ravag	-10.9324
▁overturn	-10.9326
winning	-10.9327
▁curse	-10.9344
▁$200	-10.9353
▁academic	-10.9362
▁koizumi	-10.9362
▁grocer	-10.9362
▁primary	-10.9362
▁priest	-10.9362
▁cybersecurity	-10.9362
▁shauk	-10.9363
▁extinction	-10.9363
▁burma	-10.9366
▁nu	-10.9368
▁competitor	-10.937
▁moore	-10.937
▁switches	-10.937
▁proof	-10.9379
▁$11	-10.9382
▁nj	-10.9382
▁porto	-10.9382
gg	-10.9385
▁mph	-10.9388
▁filled	-10.9392
ria	-10.9395
▁colombian	-10.9396
▁atp	-10.9404
▁drink	-10.9411
▁labels	-10.9413
▁mall	-10.9415
▁complaints	-10.9417
▁gators	-10.942
ong	-10.942
▁powered	-10.9422
dvd	-10.9423
▁tune	-10.9425
▁rust	-10.9431
▁regulations	-10.9438
▁halted	-10.9444
ade	-10.9446
▁rebounded	-10.9451
ward	-10.9451
ised	-10.9453
ze	-10.9459
▁lone	-10.946
▁gerrard	-10.9461
▁missouri	-10.9461
▁charlie	-10.9461
▁restructure	-10.9461
▁benchmark	-10.9461
▁willingham	-10.9462
▁muq	-10.9462
▁turf	-10.9462
call	-10.9463
▁birthday	-10.9463
▁amateur	-10.9464
▁actions	-10.9466
▁1500	-10.9467
▁factor	-10.9467
▁coke	-10.9473
▁reduction	-10.9474
▁continental	-10.9476
▁flee	-10.9478
▁96	-10.9497
▁slows	-10.9499
▁suits	-10.9505
ek	-10.9506
65	-10.9515
match	-10.9516
▁metro	-10.9516
going	-10.9522
▁hint	-10.9523
▁centers	-10.9525
▁smile	-10.953
▁dreams	-10.9541
▁mal	-10.9543
▁71	-10.9549
▁sick	-10.9552
▁85	-10.9553
▁selected	-10.9553
su	-10.9555
gra	-10.9556
▁teenage	-10.9558
▁asbestos	-10.9561
▁yushchenko	-10.9561
▁amelie	-10.9561
▁fault	-10.9561
▁foster	-10.9561
▁combination	-10.9561
▁importance	-10.9561
▁parmalat	-10.9563
▁omar	-10.9563
▁sugar	-10.9564
▁fixes	-10.957
▁muscle	-10.9571
▁counterpart	-10.9572
▁8-	-10.9574
▁bargain	-10.9582
▁opera	-10.9591
▁delegates	-10.9593
▁sporting	-10.9595
▁opposed	-10.9597
▁lane	-10.9617
▁tactics	-10.9619
pacific	-10.9624
▁selection	-10.9624
▁battled	-10.9625
▁male	-10.9631
▁shared	-10.9631
▁looms	-10.9635
service	-10.9635
ural	-10.9644
▁packed	-10.9645
▁2-2	-10.9649
▁veterans	-10.9651
▁birdie	-10.9656
▁incentives	-10.9659
▁gambling	-10.9662
▁ganguly	-10.9662
▁gazprom	-10.9662
▁gibbs	-10.9662
▁messenger	-10.9662
▁snatch	-10.9662
▁temple	-10.9662
▁declining	-10.9662
▁bureau	-10.9662
▁truce	-10.9662
▁wreckage	-10.9662
▁campbell	-10.9662
▁cocaine	-10.9663
▁skype	-10.9663
▁shortstop	-10.9663
▁mouse	-10.9663
▁mideast	-10.9663
▁wright	-10.9664
▁frankfurt	-10.9664
mate	-10.9665
▁brink	-10.9666
▁mills	-10.9669
▁pieces	-10.967
▁architecture	-10.9674
▁mandate	-10.9675
▁adviser	-10.9676
▁pile	-10.9685
▁$20	-10.9686
▁percentage	-10.9686
▁errors	-10.9689
▁adults	-10.9691
search	-10.9695
▁abuses	-10.9701
▁propose	-10.9704
setting	-10.9709
▁rev	-10.971
▁650	-10.9711
▁printers	-10.9712
▁thwart	-10.9715
▁interested	-10.9719
phillips	-10.9725
▁withdrawn	-10.9726
techweb	-10.9726
israeli	-10.9728
▁sprinters	-10.9729
mark	-10.973
scientists	-10.9733
▁mob	-10.9746
ep	-10.9751
ator	-10.9753
▁strokes	-10.976
▁ecclestone	-10.9764
▁giambi	-10.9764
▁incumbent	-10.9764
▁professor	-10.9764
▁1996	-10.9764
▁tribal	-10.9764
▁twenty	-10.9764
▁accusations	-10.9764
▁stunned	-10.9764
▁gross	-10.9765
▁gunfire	-10.9765
▁interests	-10.9765
▁sworn	-10.9765
rie	-10.9767
▁midway	-10.9769
▁shield	-10.9769
▁magnitude	-10.977
▁100-	-10.9773
▁ponder	-10.9775
▁dealt	-10.9775
▁subpoena	-10.9778
▁med	-10.9779
▁lord	-10.978
▁locker	-10.9784
▁counted	-10.9785
▁barrels	-10.9786
▁camps	-10.9789
▁effectively	-10.9789
▁jaguars	-10.979
▁3:	-10.9796
▁served	-10.9804
▁detailed	-10.9807
▁fled	-10.9812
▁broadcasting	-10.9819
▁differences	-10.982
▁remarks	-10.982
goran	-10.9828
commerce	-10.9829
silicon	-10.9829
arsenal	-10.9829
controlled	-10.9829
▁god	-10.9832
▁yes	-10.9838
▁reward	-10.9838
▁pharmaceuticals	-10.9845
ane	-10.9846
▁wood	-10.9847
▁dean	-10.9851
▁shin	-10.9852
stone	-10.9853
▁surpass	-10.9856
▁conn	-10.9858
▁strange	-10.9861
▁barrichello	-10.9867
▁challenging	-10.9867
▁oregon	-10.9867
▁schwarzenegger	-10.9867
▁scramble	-10.9867
▁statistics	-10.9867
▁silence	-10.9867
▁lacklust	-10.9867
▁reliance	-10.9867
▁bombardier	-10.9867
▁sinai	-10.9867
▁comfortable	-10.9868
▁detonated	-10.9869
▁frontier	-10.987
sson	-10.9872
▁licenses	-10.9875
lay	-10.9879
▁overwhelming	-10.988
▁hover	-10.9883
▁$46	-10.9887
▁buyback	-10.9889
▁$9	-10.9896
▁strongly	-10.9899
▁61	-10.9906
▁tvs	-10.9912
▁predicts	-10.9913
▁pays	-10.9915
▁dvds	-10.9916
▁monitors	-10.992
▁researcher	-10.992
▁demonstrat	-10.9921
▁colleagues	-10.9924
▁(3	-10.9932
deal	-10.9933
▁greg	-10.9933
growing	-10.9933
▁86	-10.9945
▁businessman	-10.9951
▁opt	-10.9964
86	-10.9965
▁highlights	-10.9968
▁enhance	-10.9968
▁benitez	-10.9971
▁berkeley	-10.9971
▁racist	-10.9971
▁testimony	-10.9971
▁colgate	-10.9971
▁sutton	-10.9971
▁lpga	-10.9971
▁hungary	-10.9972
▁assessment	-10.9972
▁optical	-10.9972
▁fm	-10.9972
▁routine	-10.9972
▁affected	-10.9973
▁heels	-10.9973
dis	-10.9973
▁mastermind	-10.9973
▁matthew	-10.9973
▁reverse	-10.9974
▁nice	-10.9974
made	-10.9977
▁nearby	-10.9982
▁herald	-10.9983
▁daughter	-10.999
▁distributor	-10.999
▁component	-10.9992
▁assist	-10.9994
▁resorts	-10.9996
▁160	-10.9996
:30	-10.9996
▁ir	-11.0005
▁gadgets	-11.0005
▁hair	-11.0005
▁willing	-11.0021
wire	-11.0022
▁torn	-11.0027
▁household	-11.003
▁completely	-11.0037
wanted	-11.0039
named	-11.0039
▁stir	-11.0046
▁listen	-11.0048
cast	-11.0054
▁bet	-11.0054
▁labs	-11.0055
▁$25	-11.0055
selling	-11.0057
▁protecting	-11.0059
▁sudden	-11.0063
▁aussies	-11.0064
▁rio	-11.0067
ow	-11.0072
▁partial	-11.0074
▁faith	-11.0076
▁economies	-11.0076
▁impossible	-11.0076
▁kuznetsova	-11.0076
▁latham	-11.0076
▁basque	-11.0076
▁kazakhstan	-11.0077
▁bundle	-11.0077
▁blazers	-11.0077
▁eddie	-11.0077
▁yao	-11.0077
▁collaboration	-11.0077
▁$35	-11.0077
▁spell	-11.0077
keith	-11.0078
▁nfc	-11.0078
▁kicks	-11.0078
▁typical	-11.0079
▁brokers	-11.008
▁knockout	-11.008
light	-11.0081
▁stiff	-11.0081
▁mont	-11.0082
▁clarke	-11.0082
▁bolton	-11.0083
▁haul	-11.0086
▁iaea	-11.0088
▁campus	-11.0089
▁aussie	-11.0089
▁expo	-11.0091
▁melt	-11.0092
▁emotional	-11.0094
▁underway	-11.0097
▁explosive	-11.01
ai	-11.0106
▁discussions	-11.0107
▁sparks	-11.011
▁rent	-11.0113
▁surround	-11.012
▁rivers	-11.0121
-17	-11.0121
▁sleep	-11.0124
▁spreading	-11.0127
▁catcher	-11.0131
▁punish	-11.0134
▁defeats	-11.0138
ect	-11.0143
▁hurdles	-11.015
▁unity	-11.0152
buck	-11.0153
▁devastated	-11.0156
▁nose	-11.0161
▁bann	-11.0164
▁spots	-11.0166
ail	-11.017
▁treated	-11.0173
test	-11.0174
▁poison	-11.0179
▁gamble	-11.0182
▁doubleheader	-11.0183
▁sheffield	-11.0183
▁properties	-11.0183
▁foul	-11.0183
▁prosecution	-11.0183
▁silverstone	-11.0183
▁carbon	-11.0183
▁transition	-11.0183
▁ceasefire	-11.0183
▁memorial	-11.0183
▁programming	-11.0184
▁frozen	-11.0184
▁nbc	-11.0184
▁stuck	-11.0185
▁portsmouth	-11.0185
▁14-	-11.0186
▁bea	-11.0188
▁cycle	-11.0188
▁flex	-11.0188
▁hook	-11.0189
five	-11.019
▁88	-11.0191
▁pitches	-11.0194
▁depend	-11.0201
▁nazi	-11.0203
sun	-11.0203
▁kidd	-11.0205
▁object	-11.0207
▁regulation	-11.0208
▁au	-11.0208
▁tale	-11.0215
ched	-11.0223
▁dann	-11.0223
▁wing	-11.0225
▁booming	-11.0226
▁jam	-11.0228
▁lights	-11.024
▁1.8	-11.024
▁teen	-11.0244
▁oh	-11.0244
▁bayer	-11.0248
▁$1.5	-11.0251
prince	-11.0252
▁purchased	-11.0253
▁chill	-11.0255
cious	-11.0262
▁han	-11.0272
cutting	-11.0277
▁13-	-11.0281
ran	-11.0282
-14	-11.0283
euro	-11.0286
▁wary	-11.0289
▁fl	-11.0289
▁collision	-11.029
▁verdict	-11.029
▁hampshire	-11.029
▁nistelrooy	-11.029
▁tragedy	-11.029
▁collins	-11.029
▁legacy	-11.0291
▁interactive	-11.0291
▁detention	-11.0291
▁radar	-11.0291
▁betting	-11.0291
▁frustration	-11.0291
▁assess	-11.0293
▁tunnel	-11.0293
▁chilean	-11.0297
▁shark	-11.0297
▁richest	-11.0297
▁plunge	-11.0297
▁topped	-11.0301
▁wounds	-11.031
▁burst	-11.0316
ack	-11.0319
uni	-11.0328
▁walking	-11.0328
▁platforms	-11.0334
▁fighter	-11.0338
▁trainer	-11.0339
▁window	-11.0341
60	-11.0344
play	-11.0345
▁supports	-11.0346
▁spare	-11.035
▁derail	-11.035
▁scams	-11.0354
mile	-11.0357
▁registered	-11.0361
▁recognize	-11.0361
jo	-11.0366
▁fo	-11.0368
gl	-11.037
▁eat	-11.0381
silo	-11.0383
gan	-11.0384
▁drinks	-11.039
▁spott	-11.0392
▁erp	-11.0394
▁legislati	-11.0395
▁gloom	-11.0399
▁lebron	-11.0399
▁nervous	-11.0399
▁participate	-11.0399
▁heisman	-11.0399
▁overture	-11.0399
▁cheese	-11.0399
▁peaceful	-11.0399
▁plastic	-11.04
▁grim	-11.04
▁harsh	-11.04
▁apartment	-11.04
▁castro	-11.0401
▁stance	-11.0404
▁geneva	-11.0404
▁broaden	-11.0407
pr	-11.0412
▁brom	-11.0417
ear	-11.0419
capped	-11.0425
▁weapon	-11.0429
▁infected	-11.0434
▁singer	-11.0438
▁safely	-11.044
▁bust	-11.0448
▁refus	-11.0452
ago	-11.0453
▁samples	-11.0466
virus	-11.0469
cr	-11.047
forbes	-11.0471
tokyo	-11.0471
▁landslides	-11.0475
▁towns	-11.0475
roundup	-11.048
web	-11.0486
let	-11.0487
▁hype	-11.0488
▁rip	-11.0488
▁skills	-11.0491
▁col	-11.0493
kyle	-11.0495
▁helicopters	-11.0503
▁screens	-11.0506
▁behavior	-11.0509
▁buccaneers	-11.0509
▁bullpen	-11.0509
▁celebrex	-11.0509
▁miracle	-11.0509
▁closure	-11.0509
▁hydrogen	-11.0509
▁beltran	-11.0509
▁interface	-11.0509
▁ugly	-11.0509
▁wnba	-11.0509
▁midnight	-11.051
▁taste	-11.051
▁section	-11.051
▁occupation	-11.051
▁follows	-11.0511
▁luis	-11.0511
▁crater	-11.0512
▁robots	-11.0513
▁edges	-11.0514
▁lucent	-11.0514
tion	-11.0517
▁cfo	-11.0517
▁trick	-11.0523
makers	-11.0525
▁(1	-11.0526
▁dale	-11.0528
▁mere	-11.053
▁rob	-11.0533
▁slo	-11.0538
inning	-11.0538
▁array	-11.054
▁administrator	-11.054
▁arguments	-11.054
▁$54	-11.0541
▁restaurant	-11.0542
▁hacker	-11.0551
▁runner	-11.0564
hop	-11.0568
▁53	-11.0571
▁picking	-11.0575
▁employ	-11.0578
nes	-11.0579
chicago	-11.0582
ghz	-11.0582
european	-11.0583
▁blogs	-11.0584
ably	-11.0588
▁blasted	-11.0593
▁connected	-11.0598
▁handl	-11.0602
ica	-11.0613
64	-11.0617
▁$250	-11.0618
▁rogers	-11.0618
▁cendant	-11.062
▁decisive	-11.062
▁lumber	-11.062
▁painkiller	-11.062
▁continent	-11.062
▁ankara	-11.062
▁suisse	-11.062
▁silvi	-11.062
▁sprain	-11.062
▁tamil	-11.062
▁vogts	-11.062
▁kumar	-11.062
▁eurozone	-11.0621
▁cement	-11.0621
▁columbus	-11.0621
▁truth	-11.0621
▁ellison	-11.0622
▁scan	-11.0623
▁pornography	-11.0623
▁costa	-11.0625
▁duty	-11.0625
▁safer	-11.0631
ify	-11.0644
▁sch	-11.0648
▁rains	-11.0649
▁steven	-11.0651
▁landslide	-11.0655
▁hurdle	-11.0655
▁$40	-11.0657
▁ual	-11.0659
▁dragg	-11.0666
▁rivera	-11.0666
ami	-11.0668
otic	-11.0673
▁profitable	-11.0679
▁relative	-11.068
▁investing	-11.0681
▁shocked	-11.0681
▁''	-11.0682
▁convert	-11.0684
▁mega	-11.0685
▁michel	-11.0686
put	-11.0688
▁reviews	-11.0689
there	-11.0691
▁clubs	-11.0694
▁ju	-11.0698
▁actor	-11.07
▁salt	-11.0701
▁yu	-11.0702
▁$30	-11.0704
▁82	-11.0706
hole	-11.0711
ana	-11.0713
wi	-11.0716
▁hints	-11.072
▁achieve	-11.0722
▁59	-11.0724
▁postpone	-11.0725
▁bp	-11.0726
▁collection	-11.0729
38	-11.0732
▁abdullah	-11.0732
▁academy	-11.0732
▁clijsters	-11.0732
▁hopkins	-11.0732
▁mahmou	-11.0732
▁grabs	-11.0733
▁$400	-11.0733
▁jeffrey	-11.0733
▁tyler	-11.0733
▁santana	-11.0733
▁shipped	-11.0733
11	-11.0733
▁saved	-11.0734
▁northwestern	-11.0734
▁variety	-11.0734
▁applied	-11.0735
▁plotting	-11.0735
▁nobody	-11.0736
▁redmond	-11.0741
▁pending	-11.0741
▁comply	-11.0742
▁4-2	-11.0746
ability	-11.0748
▁describe	-11.0749
▁brady	-11.075
▁tears	-11.0754
▁frustrated	-11.0754
▁receives	-11.0756
▁staged	-11.0758
▁kenyan	-11.0762
▁desktops	-11.0765
▁buyer	-11.0766
team	-11.0767
▁austrian	-11.0769
▁expense	-11.077
▁cox	-11.0781
▁headlines	-11.0783
▁qualify	-11.0784
▁upper	-11.0789
▁mess	-11.0792
▁dogs	-11.0795
▁rank	-11.0797
▁4:	-11.0798
water	-11.0804
▁houses	-11.0808
solicit	-11.0808
palestinian	-11.0808
tch	-11.0813
nie	-11.0816
▁jo	-11.0817
nasa	-11.0819
▁wear	-11.0824
▁casey	-11.0827
▁detail	-11.0839
▁favour	-11.0844
▁kenteris	-11.0846
▁confusion	-11.0846
▁biotech	-11.0847
▁duke	-11.0847
▁militiamen	-11.0848
▁yields	-11.0848
▁armstrong	-11.0848
▁visited	-11.0849
▁checkpoint	-11.085
ini	-11.0851
▁regions	-11.0851
▁attackers	-11.0853
▁stages	-11.0853
▁billions	-11.0856
▁resist	-11.0857
▁purported	-11.0858
ipped	-11.086
▁breath	-11.0861
▁0.2	-11.087
pk	-11.0871
▁rings	-11.0875
amd	-11.0876
sign	-11.0877
▁rss	-11.0881
▁2.0	-11.0884
▁barrier	-11.089
▁tower	-11.0892
▁upheld	-11.0897
▁staying	-11.0899
▁74	-11.0899
▁priced	-11.0901
▁erupt	-11.091
athens	-11.0923
▁fixing	-11.0928
▁weis	-11.0928
▁mood	-11.0929
▁controlled	-11.0935
hand	-11.0935
▁statements	-11.0938
▁clearly	-11.0944
▁whom	-11.0946
▁bu	-11.0947
▁grave	-11.0955
▁examine	-11.096
▁extradition	-11.0961
▁principle	-11.0961
▁productivity	-11.0961
▁sequel	-11.0961
▁spaniard	-11.0961
▁tribune	-11.0961
▁bobcats	-11.0961
▁shaky	-11.0961
▁honeywell	-11.0961
▁alcoa	-11.0961
▁mainframe	-11.0961
▁derby	-11.0961
▁hamper	-11.0961
▁wilson	-11.0962
▁tall	-11.0962
▁hidden	-11.0962
▁nairobi	-11.0963
▁grey	-11.0966
▁downtown	-11.0971
▁aging	-11.0974
▁philip	-11.0979
remarkable	-11.0981
gm	-11.099
▁stemm	-11.099
ins	-11.0992
▁readers	-11.1
▁proceed	-11.1001
▁ver	-11.1001
▁appliance	-11.1003
▁bombed	-11.1003
▁location	-11.1003
▁guerrilla	-11.1006
▁carmaker	-11.1008
▁cds	-11.1016
▁attempted	-11.102
this	-11.1024
▁feds	-11.1025
size	-11.1025
▁implant	-11.1028
tte	-11.103
▁zi	-11.1031
▁forms	-11.1031
era	-11.1034
orcl	-11.1041
apple	-11.1048
relatively	-11.1055
▁cor	-11.1056
▁secured	-11.1062
▁89	-11.1067
▁brac	-11.1069
▁disputes	-11.107
▁guys	-11.1071
▁displays	-11.1071
don	-11.1074
▁4-1	-11.1076
▁blunkett	-11.1077
▁enemy	-11.1077
▁fujitsu	-11.1077
▁kraft	-11.1077
▁mbeki	-11.1077
▁opportunities	-11.1077
▁sabotage	-11.1077
▁sainsbury	-11.1077
▁mainstream	-11.1078
▁knight	-11.1078
▁submit	-11.1078
▁villagers	-11.1078
▁oscar	-11.1078
▁astrazeneca	-11.108
▁indefinitely	-11.1082
▁racial	-11.1082
▁freestyle	-11.1083
▁float	-11.1083
▁stack	-11.1084
▁exile	-11.1084
▁ruud	-11.1084
▁pirated	-11.1085
▁hoya	-11.1089
▁arlington	-11.109
▁expecting	-11.1091
bat	-11.1091
▁duo	-11.1092
▁axe	-11.1098
ions	-11.11
▁widens	-11.1105
▁hunters	-11.1108
guel	-11.1113
▁5-1	-11.1116
▁origin	-11.1121
▁tons	-11.1122
▁sample	-11.1123
▁eagle	-11.1127
▁tourist	-11.1129
▁fend	-11.1129
▁skin	-11.113
▁pda	-11.1132
tle	-11.1139
▁$1.1	-11.1148
▁improvements	-11.1152
▁injure	-11.1157
▁roads	-11.1157
distance	-11.1157
atlantic	-11.1157
court	-11.1157
▁resolv	-11.1158
▁installed	-11.1168
home	-11.118
▁smooth	-11.1182
▁ross	-11.1183
achin	-11.1185
100	-11.1186
▁sh	-11.119
▁05	-11.119
▁manufacture	-11.1191
▁mit	-11.1191
▁except	-11.1193
▁barclay	-11.1195
▁centrino	-11.1195
▁dunhill	-11.1195
▁intervention	-11.1195
▁knowledge	-11.1195
▁megawati	-11.1195
▁emirates	-11.1195
▁terrell	-11.1195
▁neither	-11.1195
▁variant	-11.1196
▁downloading	-11.1196
▁rotation	-11.1196
▁metres	-11.1196
▁flies	-11.1196
▁acquisitions	-11.1196
▁collective	-11.1197
▁moya	-11.1198
▁agriculture	-11.1199
▁xinhua	-11.1202
14	-11.1202
▁causes	-11.1204
▁outstanding	-11.1204
▁2009	-11.1206
▁occurred	-11.1207
ux	-11.1209
▁televisions	-11.1209
▁bosnian	-11.1209
ves	-11.1211
▁luke	-11.1215
▁crop	-11.1224
▁paint	-11.1226
▁wells	-11.1227
log	-11.1229
▁robotic	-11.1231
cent	-11.1235
▁billi	-11.1238
▁distributed	-11.124
▁margin	-11.1243
▁smartphone	-11.1244
▁politician	-11.1245
▁dair	-11.1253
▁individuals	-11.126
▁automakers	-11.126
▁abus	-11.1268
▁organizers	-11.1271
▁burning	-11.1274
internet	-11.1277
▁sank	-11.1278
▁papers	-11.1293
▁involve	-11.1296
▁intention	-11.1299
▁drag	-11.1301
▁cook	-11.1306
▁mauri	-11.1309
▁golfer	-11.1309
race	-11.1312
▁acrobat	-11.1314
▁bambang	-11.1314
▁currencies	-11.1314
▁huskies	-11.1314
▁laboratories	-11.1314
▁album	-11.1314
▁parade	-11.1315
▁leak	-11.1315
▁hanging	-11.1315
▁wedding	-11.1315
▁kentucky	-11.1316
▁turnaround	-11.1316
▁beirut	-11.1316
▁authentication	-11.1316
▁wrist	-11.1316
▁lockheed	-11.1317
▁restart	-11.1318
▁wade	-11.1322
▁logic	-11.1322
▁pak	-11.1338
▁manny	-11.1349
▁slim	-11.1354
▁tribute	-11.1363
▁creator	-11.1368
▁demonstrate	-11.137
▁ham	-11.1373
ji	-11.1374
▁ri	-11.1378
software	-11.1397
▁sho	-11.1406
▁findings	-11.1409
▁agreements	-11.1411
▁$47	-11.1412
▁resolved	-11.1412
▁forge	-11.1414
▁chose	-11.1419
▁math	-11.142
▁disclose	-11.1424
lashes	-11.1431
▁$41	-11.1433
▁dictator	-11.1434
▁serge	-11.1434
▁jimenez	-11.1434
▁biotechnology	-11.1435
▁supercomputing	-11.1435
▁sneak	-11.1435
▁oversight	-11.1435
▁manuel	-11.1435
▁eads	-11.1435
▁interstate	-11.1436
▁dedicated	-11.1436
▁arts	-11.1436
▁milk	-11.1436
▁charity	-11.1437
▁recruits	-11.1439
▁fulham	-11.1439
▁grass	-11.1448
70	-11.1449
▁loud	-11.1452
▁il	-11.1468
▁riding	-11.1469
ama	-11.1469
▁beck	-11.147
▁mor	-11.1472
hold	-11.1477
band	-11.1481
▁odd	-11.1486
▁difference	-11.149
▁boat	-11.1494
dr	-11.1496
tain	-11.1498
▁hol	-11.1499
ative	-11.15
name	-11.1501
▁lion	-11.1503
ups	-11.1505
▁ambush	-11.1508
▁violate	-11.1512
produc	-11.1514
▁ore	-11.1517
▁oversee	-11.1519
cell	-11.1522
▁hosting	-11.153
ks	-11.1531
▁accelerate	-11.1539
powered	-11.154
lana	-11.1545
▁ideas	-11.1551
▁purchases	-11.1551
▁adams	-11.1553
▁1998	-11.1556
▁hungarian	-11.1556
▁jintao	-11.1556
▁drift	-11.1556
▁smoking	-11.1556
▁tailback	-11.1557
llip	-11.1557
▁kyi	-11.1558
▁nike	-11.1558
▁marat	-11.1558
▁dance	-11.1558
▁manila	-11.1558
▁excited	-11.1559
▁simultaneously	-11.156
▁plague	-11.156
ros	-11.1562
board	-11.157
▁mile	-11.1573
▁4000	-11.1576
▁wrapped	-11.1576
18	-11.1576
united	-11.1577
▁trojans	-11.1578
dal	-11.1579
▁mag	-11.1588
ue	-11.1589
▁gray	-11.159
▁et	-11.1591
▁po	-11.1592
mc	-11.1593
mails	-11.1594
▁barred	-11.1598
▁speeds	-11.1608
▁est	-11.1608
▁120	-11.161
can	-11.161
▁92	-11.1612
ona	-11.1615
▁spur	-11.1621
hr	-11.1622
▁deepen	-11.1623
wide	-11.1623
▁che	-11.1623
digit	-11.1624
action	-11.1626
ju	-11.1628
▁ke	-11.1631
▁79	-11.1632
▁rever	-11.1632
▁sail	-11.1633
gu	-11.1634
▁writers	-11.1634
▁zarqawi	-11.1635
▁sha	-11.1642
britain	-11.1642
michael	-11.1642
psft	-11.1642
box	-11.1648
▁ink	-11.1652
▁shelves	-11.1657
▁ki	-11.1658
▁decid	-11.1658
▁argue	-11.1663
▁voter	-11.1664
▁suns	-11.1666
-21	-11.1668
sari	-11.1671
van	-11.1675
▁sandwich	-11.1676
▁haa	-11.1678
▁$48	-11.1679
▁balco	-11.1679
▁feat	-11.168
▁gymnast	-11.168
▁barbados	-11.168
▁mojave	-11.168
▁soybean	-11.168
▁anxious	-11.168
▁indicator	-11.168
▁lunch	-11.168
▁ralph	-11.168
▁rubber	-11.168
▁fruit	-11.168
burn	-11.168
▁barrage	-11.168
▁proceedings	-11.1681
▁approximately	-11.1681
▁tele	-11.1681
▁visual	-11.1683
▁creative	-11.1684
▁hack	-11.1684
▁hails	-11.1687
▁writing	-11.1687
▁afghans	-11.1693
▁stream	-11.1697
▁restrictions	-11.1703
▁offseason	-11.1703
▁rib	-11.1704
▁processes	-11.1708
▁bars	-11.1711
▁interesting	-11.1712
▁dealing	-11.1715
▁investigated	-11.1718
▁pe	-11.1719
▁ea	-11.1719
ck	-11.1722
▁colo	-11.1727
▁glass	-11.1729
▁doors	-11.1731
▁quarters	-11.1736
▁mir	-11.1738
ging	-11.1739
use	-11.1745
▁margins	-11.1754
▁19-	-11.1759
ain	-11.1759
force	-11.1762
disclosed	-11.1767
first	-11.1767
▁crush	-11.1779
▁contribute	-11.1786
▁alien	-11.1804
▁apparel	-11.1805
▁blitz	-11.1805
▁cyprus	-11.1805
▁dementieva	-11.1805
▁peacekeeping	-11.1805
▁quattrone	-11.1805
▁thunderbird	-11.1805
▁governance	-11.1805
▁lilly	-11.1805
▁evil	-11.1805
▁toxic	-11.1805
▁clara	-11.1805
▁coordinator	-11.1806
▁flock	-11.1806
▁tyron	-11.1806
▁mylan	-11.1806
▁banker	-11.1807
▁indication	-11.1807
▁arroyo	-11.1808
▁empty	-11.1808
▁squeeze	-11.1808
▁automatic	-11.1808
▁apology	-11.1811
▁4-6	-11.1811
▁clouds	-11.1811
▁mainland	-11.1812
▁2010	-11.1812
▁chemicals	-11.1813
cut	-11.1815
▁portion	-11.1816
▁soviet	-11.1817
▁alarm	-11.1822
▁engaged	-11.1826
▁shy	-11.1827
pnet	-11.1834
▁supersonics	-11.1835
▁20000	-11.1837
▁lending	-11.1839
▁bite	-11.1839
▁2.5	-11.1844
▁letters	-11.1857
▁timing	-11.1858
▁surfers	-11.186
▁designer	-11.1865
▁architect	-11.1865
▁ph	-11.1866
▁technique	-11.1867
cap	-11.187
▁owns	-11.1871
oc	-11.1879
▁taps	-11.1889
▁darre	-11.1889
computer	-11.1892
crude	-11.1894
police	-11.1894
suu	-11.1896
load	-11.1904
▁simon	-11.1905
▁skip	-11.1909
▁brace	-11.1922
brand	-11.1924
▁experiments	-11.1927
▁salvador	-11.1929
▁illness	-11.193
▁wreck	-11.1931
▁gatlin	-11.1931
▁influential	-11.1931
▁schroeder	-11.1931
▁transplant	-11.1931
▁disclosure	-11.1931
▁oxygen	-11.1932
▁volleyball	-11.1932
▁duties	-11.1932
residential	-11.1932
▁defiant	-11.1932
▁zero	-11.1932
▁telekom	-11.1934
▁skies	-11.1934
▁keyboard	-11.1935
▁bueno	-11.1936
▁soften	-11.1938
▁deficits	-11.1938
▁sore	-11.1939
▁marvel	-11.1942
▁searches	-11.1942
▁shrugged	-11.1944
▁keen	-11.1944
▁theater	-11.1949
nz	-11.1953
▁cited	-11.1972
▁todd	-11.198
▁bury	-11.198
▁praised	-11.198
▁incidents	-11.1986
▁sideline	-11.1986
▁commit	-11.1987
▁winless	-11.1993
▁counterfeit	-11.1998
grade	-11.1998
▁hires	-11.2004
▁bans	-11.2005
▁thu	-11.2007
▁rack	-11.2008
▁dodge	-11.2016
goog	-11.202
km	-11.202
wear	-11.2022
▁sliding	-11.2024
▁quotas	-11.2024
aid	-11.2025
▁syn	-11.2025
▁macro	-11.2026
ical	-11.2032
▁bosnia	-11.2044
akar	-11.2046
▁eager	-11.2047
art	-11.2047
▁hide	-11.2048
▁buck	-11.2048
▁divide	-11.205
ano	-11.2052
▁fundamental	-11.2055
▁upgrad	-11.2059
▁caracas	-11.206
▁declaration	-11.206
▁likud	-11.206
▁undefeated	-11.206
▁wrigley	-11.206
▁hawaii	-11.206
▁spectrum	-11.206
▁jockey	-11.206
▁appointment	-11.2061
▁toolbar	-11.2061
▁monster	-11.2061
▁58	-11.2061
▁testify	-11.2064
ice	-11.2064
▁harder	-11.2065
▁novel	-11.2067
▁westwood	-11.2068
▁defy	-11.2068
▁hometown	-11.2069
▁4-3	-11.207
▁tea	-11.207
▁contribut	-11.2071
enson	-11.2071
▁dismiss	-11.2071
bodan	-11.2075
▁sprinter	-11.2075
▁useful	-11.2076
▁ioc	-11.2076
▁panels	-11.2084
▁boxes	-11.2085
▁vo	-11.2089
▁borrowing	-11.2092
▁enhanced	-11.2092
▁constitutional	-11.2094
▁tips	-11.2101
147	-11.2102
▁apps	-11.2108
▁attacker	-11.2111
▁strengthening	-11.2118
▁transaction	-11.2129
▁startup	-11.2142
▁printer	-11.2144
mpaa	-11.2147
▁$300	-11.215
swapping	-11.2151
prime	-11.2152
report	-11.2158
▁aires	-11.2158
▁casinos	-11.2163
page	-11.2167
ities	-11.2169
went	-11.217
uc	-11.2174
▁nv	-11.2175
▁elen	-11.218
▁deployed	-11.2181
sti	-11.2183
hot	-11.2183
▁pitt	-11.2184
▁surges	-11.2187
compatible	-11.219
▁comprehensive	-11.219
▁conclusion	-11.219
▁hendrick	-11.219
▁ramadi	-11.219
▁asteroid	-11.219
▁cambridge	-11.219
▁fiber	-11.219
▁oval	-11.219
▁nelson	-11.219
▁gradual	-11.219
▁remainder	-11.219
▁disorder	-11.219
▁desire	-11.219
▁anywhere	-11.219
▁ballistic	-11.219
▁nepalese	-11.219
▁sachs	-11.219
▁plate	-11.2192
▁afc	-11.2192
▁invitational	-11.2193
▁diesel	-11.2194
▁myskin	-11.2195
ily	-11.2195
▁lara	-11.2196
▁pas	-11.2198
sch	-11.22
▁riaa	-11.2201
▁100000	-11.2203
▁princess	-11.2205
▁ji	-11.2207
▁artists	-11.2208
▁uncovered	-11.2213
▁hiding	-11.2213
▁$160	-11.2214
▁tired	-11.2215
▁ubs	-11.2217
mann	-11.2219
▁challenged	-11.2222
▁rely	-11.2226
hp	-11.2226
bury	-11.223
▁ti	-11.2245
▁headline	-11.2249
▁banner	-11.2251
▁saga	-11.2257
tm	-11.2257
▁hardie	-11.2259
▁talked	-11.226
edge	-11.2261
▁obtained	-11.2261
▁folks	-11.2262
▁minds	-11.2262
▁victor	-11.2264
▁iv	-11.2266
russia	-11.2267
▁celebrates	-11.227
▁stra	-11.2276
▁tag	-11.2278
demand	-11.2283
iraqi	-11.2287
▁extremists	-11.229
▁delivering	-11.2291
▁$17	-11.2291
ore	-11.2298
▁trim	-11.2298
▁(4	-11.2304
▁juli	-11.2306
▁pin	-11.231
▁upsets	-11.2311
▁bone	-11.2312
58	-11.2313
16	-11.2315
▁layer	-11.2318
▁youth	-11.2318
▁gesture	-11.2321
▁segment	-11.2321
▁silent	-11.2321
▁liberation	-11.2321
▁swarm	-11.2321
▁dampen	-11.2322
▁morris	-11.2322
▁torre	-11.2322
▁calgary	-11.2323
▁unclear	-11.2324
▁essential	-11.2326
▁testified	-11.2327
▁marcus	-11.2329
▁ucla	-11.2333
▁secrets	-11.2338
▁mourn	-11.234
▁reiterat	-11.2341
▁shattered	-11.2347
▁sister	-11.2353
▁fortunes	-11.2357
▁awaiting	-11.236
▁asean	-11.2362
▁photograph	-11.237
▁dismisse	-11.2371
▁attorneys	-11.2371
track	-11.2374
▁ranging	-11.2376
▁uniform	-11.2396
▁premium	-11.2397
▁tank	-11.2397
hane	-11.24
▁boo	-11.2402
▁jolt	-11.2403
▁deadlock	-11.2407
cular	-11.241
▁campaigns	-11.2411
orient	-11.2416
wmt	-11.2416
intc	-11.2416
french	-11.2416
government	-11.2416
oracle	-11.242
talk	-11.2422
▁pot	-11.2425
▁transform	-11.2428
▁hk	-11.2439
▁splash	-11.2439
▁lowers	-11.2442
▁sooners	-11.2446
▁hearts	-11.2452
▁artificial	-11.2454
▁coulthard	-11.2454
▁grenada	-11.2454
▁portugal	-11.2454
▁innocent	-11.2454
▁personnel	-11.2454
▁aftermath	-11.2455
▁coughlin	-11.2455
▁kelly	-11.2455
▁introduction	-11.2455
▁amendment	-11.2455
▁migration	-11.2455
▁mastercard	-11.2455
▁festival	-11.2455
▁cink	-11.2456
▁marshall	-11.2456
▁intent	-11.2457
▁hyn	-11.2457
▁fence	-11.2459
▁musicmatch	-11.246
▁middlesbrough	-11.2461
▁disabled	-11.2461
▁dips	-11.2463
▁followers	-11.2463
▁minneapolis	-11.2467
▁fr	-11.2469
▁texans	-11.2474
▁shops	-11.2476
▁fares	-11.2478
▁$44	-11.2481
oise	-11.2483
▁torture	-11.2496
▁bmw	-11.2509
only	-11.2509
▁junichi	-11.2517
▁sms	-11.2523
▁rebuild	-11.2527
▁franklin	-11.2531
▁initiatives	-11.2534
▁25-	-11.2535
▁disrupted	-11.2542
network	-11.2544
▁fishing	-11.2544
▁lan	-11.2546
fold	-11.255
mm	-11.2556
▁hell	-11.2556
▁wheel	-11.2561
▁builds	-11.2562
▁dia	-11.2565
29	-11.2565
▁adapt	-11.2568
▁lg	-11.257
▁convince	-11.2572
▁dam	-11.2576
▁laptops	-11.258
▁mat	-11.2588
▁burundi	-11.259
▁caminiti	-11.259
▁convincing	-11.259
▁donovan	-11.259
▁mondavi	-11.259
▁scrutiny	-11.259
▁spencer	-11.259
▁throne	-11.259
▁settling	-11.259
▁bernard	-11.259
nc	-11.259
▁aftershocks	-11.259
▁jboss	-11.259
▁withdraws	-11.259
▁copper	-11.259
▁kan	-11.2592
▁painful	-11.2592
▁yuan	-11.2593
▁wrote	-11.2593
uck	-11.2595
▁gallon	-11.2596
▁petition	-11.2597
▁conceded	-11.2598
▁contention	-11.2601
▁$7.7	-11.2602
13	-11.2602
ium	-11.2602
▁$1.3	-11.2603
▁ru	-11.2605
ola	-11.2605
▁utd	-11.2605
▁approaches	-11.2605
du	-11.2607
spired	-11.2616
▁bud	-11.2617
▁ethics	-11.262
▁ol	-11.2624
▁debates	-11.2627
▁palmer	-11.2628
▁halftime	-11.2632
▁rand	-11.2634
▁pit	-11.2652
▁1.7	-11.2653
▁layoffs	-11.2654
▁bucks	-11.2655
▁sidelines	-11.2655
▁6000	-11.2659
▁arriv	-11.2662
▁augusto	-11.2666
44	-11.2668
▁honour	-11.2671
▁captive	-11.2672
▁inspector	-11.2676
▁preparation	-11.2677
▁rocky	-11.268
▁bearing	-11.2681
▁dash	-11.2684
boston	-11.2688
piracy	-11.2689
peoplesoft	-11.2689
▁thousand	-11.2689
▁thi	-11.269
▁affiliate	-11.2692
▁counts	-11.2696
uri	-11.2702
▁mmo	-11.2707
online	-11.2707
▁advisers	-11.2708
5-2	-11.2713
you	-11.2713
▁substantial	-11.2713
▁duel	-11.2715
▁luck	-11.2716
▁lou	-11.2719
own	-11.2722
▁kidnap	-11.2726
▁glimpse	-11.2727
▁havana	-11.2727
▁peninsula	-11.2727
▁ramadan	-11.2727
▁unilever	-11.2727
▁ahmed	-11.2727
▁communities	-11.2727
▁acquitted	-11.2727
▁slipping	-11.2727
▁mound	-11.2727
▁prevail	-11.2727
▁kidney	-11.2727
▁depart	-11.2727
▁bellsouth	-11.2728
▁wpp	-11.2728
▁hazard	-11.2729
▁monopoly	-11.2729
▁powerbook	-11.2729
▁trillion	-11.273
▁advisory	-11.2735
aught	-11.2735
▁guillen	-11.2735
▁drum	-11.2738
▁compil	-11.2738
▁imam	-11.2739
▁nicola	-11.2739
▁sasser	-11.2741
▁stories	-11.2746
west	-11.2747
▁smallest	-11.2747
▁damon	-11.2749
pound	-11.2749
▁founders	-11.2749
▁ftc	-11.275
▁leftist	-11.2751
▁upward	-11.2752
▁$16	-11.2757
▁armor	-11.2757
▁$14	-11.2763
▁widened	-11.2771
cker	-11.2772
▁issu	-11.2773
▁valentin	-11.2774
▁81	-11.2775
ud	-11.2783
▁crushed	-11.2787
▁concept	-11.2793
ero	-11.2796
▁burned	-11.2798
▁climbing	-11.2804
▁representative	-11.281
▁gifts	-11.281
▁turnovers	-11.2811
▁neighborhood	-11.2812
▁locations	-11.2815
▁briefs	-11.2819
▁institutions	-11.2821
most	-11.2824
▁restaurants	-11.2825
▁fumble	-11.2827
▁sad	-11.283
check	-11.2846
▁ward	-11.2846
▁sounds	-11.2847
▁custom	-11.2847
▁evacuate	-11.2848
▁spat	-11.2855
▁pal	-11.2857
▁municipal	-11.2865
▁amazing	-11.2865
▁dennis	-11.2865
▁gonaives	-11.2865
▁judgment	-11.2865
▁quebec	-11.2865
▁correspondent	-11.2866
▁lumpur	-11.2866
▁randolph	-11.2866
▁definitive	-11.2866
▁goalkeeper	-11.2866
▁confrontation	-11.2866
▁enrich	-11.2866
▁lance	-11.2868
▁halifax	-11.2868
▁distribute	-11.2868
trapped	-11.2868
▁clubhouse	-11.2869
▁counties	-11.2869
▁funk	-11.2871
▁5-4	-11.2872
▁blows	-11.2876
▁vick	-11.2876
▁recognition	-11.2878
▁foes	-11.2878
▁tar	-11.2878
▁keefe	-11.2882
▁assured	-11.2885
▁bypass	-11.2889
▁sergi	-11.2901
jay	-11.2902
▁inspire	-11.2907
▁wet	-11.291
▁sta	-11.2916
▁clone	-11.2921
▁burt	-11.2922
nk	-11.2929
▁emi	-11.2936
▁guarantee	-11.2937
▁detected	-11.2939
▁suse	-11.2944
▁sealed	-11.2944
▁viewing	-11.2946
▁grown	-11.2953
▁whale	-11.2954
law	-11.2958
▁stress	-11.2959
▁crowds	-11.296
▁dose	-11.2963
yo	-11.2964
▁rumor	-11.2964
anticipated	-11.2968
http	-11.2968
▁shoe	-11.2969
▁130	-11.2975
▁formats	-11.2978
▁cracked	-11.2981
▁rb	-11.2982
▁kent	-11.2983
▁berti	-11.2983
▁aig	-11.2989
▁lithuania	-11.2993
▁routers	-11.2993
▁miner	-11.2994
▁warrant	-11.2997
▁invitation	-11.3003
▁fernando	-11.3006
▁herself	-11.3006
▁icahn	-11.3006
▁medicare	-11.3006
▁arnold	-11.3006
▁ceiling	-11.3006
▁diving	-11.3006
▁lexmark	-11.3006
▁pavano	-11.3006
▁furious	-11.3007
▁denial	-11.3007
▁battleground	-11.3007
▁henin	-11.3007
▁mls	-11.3007
▁capping	-11.3009
▁brent	-11.3009
▁category	-11.3009
▁burden	-11.301
▁cancelled	-11.301
▁roadside	-11.3011
▁modified	-11.3012
▁powerhouse	-11.3012
▁branches	-11.3012
▁highbury	-11.3013
▁rejection	-11.3016
▁inches	-11.3016
▁dirty	-11.3017
▁sosa	-11.3018
▁vault	-11.3019
▁slice	-11.3019
▁bruised	-11.3021
▁executed	-11.3024
▁overtake	-11.3027
▁cole	-11.3027
▁mouth	-11.3032
▁cluster	-11.3037
bsp	-11.3039
▁looming	-11.3041
ries	-11.3045
▁soil	-11.3048
▁drugmaker	-11.305
▁wages	-11.3051
qtr	-11.3052
▁rumors	-11.3055
mac	-11.306
▁jeter	-11.306
▁preparations	-11.3061
▁mud	-11.3061
▁weren	-11.3066
▁tags	-11.307
▁separatists	-11.3074
▁campaigning	-11.3075
▁scaled	-11.3075
▁ft	-11.3077
▁resulted	-11.3078
▁laugh	-11.3087
▁showcase	-11.3088
▁bargaining	-11.3095
▁paulo	-11.3096
▁affair	-11.3103
▁gadget	-11.3106
▁walter	-11.3107
▁gal	-11.311
▁militias	-11.311
voting	-11.3111
identified	-11.3111
▁gang	-11.3112
▁height	-11.3116
:00	-11.3123
lar	-11.3127
▁antarctic	-11.313
lik	-11.3135
press	-11.3139
▁questioning	-11.3139
▁amnesty	-11.3149
▁barghouti	-11.3149
▁bundesliga	-11.3149
▁consumption	-11.3149
▁elbow	-11.3149
▁griffin	-11.3149
▁prototype	-11.3149
▁rutherford	-11.3149
▁brutal	-11.3149
▁jimmy	-11.3149
▁stopping	-11.315
▁bremen	-11.315
▁counsel	-11.315
▁submitted	-11.315
▁svet	-11.315
▁legendary	-11.315
▁medallist	-11.3151
▁generate	-11.3152
▁bode	-11.3152
clk	-11.3153
▁disgrace	-11.3153
bian	-11.3153
▁wmc	-11.3153
▁medics	-11.3157
▁consolidate	-11.3158
▁courtroom	-11.3158
▁develops	-11.316
▁cnet	-11.3162
▁dipped	-11.3171
▁spec	-11.3175
die	-11.3181
▁mu	-11.3182
▁tanker	-11.3182
▁websites	-11.3183
▁thoughts	-11.3185
mir	-11.3186
▁weakened	-11.3187
▁goog	-11.3191
▁psft	-11.3194
gh	-11.3196
start	-11.3208
sw	-11.3211
neal	-11.3212
▁reg	-11.3212
▁glaciers	-11.3223
cha	-11.3225
▁dome	-11.3231
▁bee	-11.3232
▁damag	-11.3233
▁grounds	-11.3237
▁brewer	-11.3239
▁initially	-11.3241
▁dissident	-11.3248
▁method	-11.3249
▁gro	-11.3249
▁eating	-11.3254
▁blues	-11.3255
rigging	-11.3256
chelsea	-11.3256
japan	-11.3256
friendly	-11.3258
▁350	-11.3269
▁ming	-11.327
ata	-11.3273
▁bur	-11.3274
rim	-11.3279
org	-11.328
▁frequent	-11.3281
▁salvage	-11.3282
▁undermine	-11.3285
▁serbia	-11.3289
▁revealing	-11.329
▁beneath	-11.3294
▁capriati	-11.3294
▁inevitable	-11.3294
▁leisure	-11.3294
▁luxembourg	-11.3294
▁reaffirm	-11.3294
▁srinagar	-11.3294
▁surveillance	-11.3294
▁jenkins	-11.3294
▁nevada	-11.3294
▁landscape	-11.3294
hardenne	-11.3294
▁ufj	-11.3294
▁ponting	-11.3294
▁vacation	-11.3294
▁earthlink	-11.3295
▁possession	-11.3296
▁joseph	-11.3296
▁otherwise	-11.3296
▁shortfall	-11.3296
▁persistent	-11.3296
▁sorry	-11.3297
▁goosen	-11.3297
ena	-11.33
trade	-11.3302
▁sheikh	-11.3302
▁viewers	-11.3304
▁frame	-11.3306
▁walkman	-11.3307
▁midday	-11.331
▁slap	-11.3312
▁shifts	-11.3315
take	-11.332
▁shoots	-11.3321
▁aggressively	-11.3324
▁sexually	-11.3324
gram	-11.3328
▁seeming	-11.3328
▁protected	-11.3333
▁murdered	-11.3335
-2	-11.3337
oya	-11.3337
▁lie	-11.3338
▁conventional	-11.3339
▁zoo	-11.335
▁leaked	-11.3353
▁canon	-11.3359
rina	-11.3359
▁shuts	-11.3367
▁approached	-11.3368
tified	-11.3386
▁fold	-11.3389
500	-11.3395
▁commanders	-11.3397
▁advertisement	-11.3398
▁microprocessor	-11.3398
▁argument	-11.3399
▁publishers	-11.34
▁adult	-11.34
israel	-11.34
four	-11.3404
rus	-11.3407
▁discussion	-11.3407
▁8:	-11.341
▁$19	-11.341
founder	-11.3416
▁albert	-11.3417
▁unveiling	-11.3418
ssed	-11.3422
▁pause	-11.3425
gs	-11.3426
▁resource	-11.3426
▁factors	-11.3429
▁myer	-11.343
trust	-11.343
▁corporations	-11.3431
▁clinic	-11.3434
▁browsers	-11.3437
▁load	-11.344
▁belt	-11.344
▁external	-11.3441
▁horror	-11.3441
▁kellogg	-11.3441
▁mugabe	-11.3441
▁nightclub	-11.3441
▁scramjet	-11.3441
▁sebasti	-11.3441
▁spiral	-11.3441
▁wallace	-11.3441
▁poult	-11.3441
▁shui	-11.3441
▁spree	-11.3441
▁assistance	-11.3441
▁filter	-11.3442
▁hamza	-11.3442
▁seals	-11.3442
▁liga	-11.3442
▁genetically	-11.3442
▁bullish	-11.3442
▁tyson	-11.3443
▁orthodox	-11.3443
▁turin	-11.3443
▁automobile	-11.3444
▁verisign	-11.3444
▁charlton	-11.3444
stock	-11.3445
▁adoption	-11.3445
▁township	-11.3447
▁retires	-11.3448
▁elderly	-11.3449
▁lists	-11.3449
▁paramilitar	-11.3449
▁directories	-11.345
▁brit	-11.3451
▁hotmail	-11.3454
▁marketplace	-11.3457
▁mortgages	-11.3458
del	-11.3461
▁lett	-11.3462
▁1.1	-11.3465
▁indy	-11.3466
▁cop	-11.3478
▁flare	-11.3479
▁outfit	-11.3479
ose	-11.3481
▁represents	-11.3487
▁2004)	-11.3494
▁intro	-11.3497
▁quarterbacks	-11.35
▁passwords	-11.3503
▁stall	-11.351
▁genes	-11.3511
third	-11.3512
▁coles	-11.3512
▁hurting	-11.3513
▁eliminated	-11.3517
▁mps	-11.3517
▁borders	-11.3525
▁policeman	-11.3527
▁scream	-11.3533
▁phon	-11.3535
▁restrict	-11.3541
proving	-11.3545
bertr	-11.3547
▁warlord	-11.3548
iraq	-11.3549
▁fortune	-11.355
company	-11.3552
▁hospitals	-11.3552
are	-11.3553
fall	-11.3553
fund	-11.3554
▁pav	-11.3555
▁resident	-11.3575
▁contend	-11.3579
▁bryan	-11.358
▁22-	-11.3583
▁investigations	-11.3584
▁excess	-11.3589
▁avenue	-11.359
▁bilateral	-11.359
▁clemson	-11.359
▁genome	-11.359
▁mcnabb	-11.359
▁spawn	-11.359
▁trinidad	-11.359
▁bronx	-11.359
▁athlon	-11.359
▁ossetia	-11.359
▁parcells	-11.359
▁memories	-11.3591
▁diamond	-11.3591
▁framework	-11.3591
▁vaughan	-11.3591
▁forthcoming	-11.3591
▁breast	-11.3591
▁graham	-11.3591
▁francis	-11.3592
▁barros	-11.3592
▁1995	-11.3592
▁malone	-11.3593
▁southwestern	-11.3593
▁nagpur	-11.3594
▁karachi	-11.3594
▁taj	-11.3595
▁orbitz	-11.3596
▁slovakia	-11.3596
▁downward	-11.36
▁dsl	-11.3603
▁lung	-11.3606
▁bets	-11.3606
▁cooling	-11.361
▁acting	-11.361
▁upstart	-11.361
▁reminder	-11.361
rnhard	-11.3612
ique	-11.3613
row	-11.3614
▁recorders	-11.3616
400	-11.3618
15	-11.362
mu	-11.3621
55	-11.3626
▁medalist	-11.3628
24	-11.3632
▁echo	-11.3632
88	-11.3635
▁hearings	-11.3638
sure	-11.3644
▁veto	-11.3645
▁norodo	-11.3646
▁$21	-11.3646
▁canas	-11.3649
▁beam	-11.3651
▁definition	-11.3651
▁orcl	-11.3651
see	-11.3653
▁sum	-11.3654
▁prefer	-11.3654
ova	-11.3659
▁temperatures	-11.3662
▁surf	-11.3667
▁tin	-11.3667
▁rescued	-11.3668
kg	-11.3672
dom	-11.3678
▁covering	-11.368
bra	-11.3683
▁requested	-11.3684
▁kid	-11.3686
▁holders	-11.3687
▁confront	-11.3692
▁turner	-11.3694
▁foxboro	-11.3696
ington	-11.3697
▁entrepreneur	-11.3702
▁climbs	-11.3703
sydney	-11.3704
▁negotiator	-11.3705
148	-11.3706
▁channels	-11.3707
▁violation	-11.3708
▁rbi	-11.3709
▁holder	-11.371
je	-11.3724
▁ignore	-11.3725
▁5:	-11.3727
ez	-11.3727
▁projected	-11.3737
▁sr	-11.3741
▁moons	-11.3741
▁abidjan	-11.3742
▁appetite	-11.3742
▁bounty	-11.3742
▁canaveral	-11.3742
▁compact	-11.3742
▁delphi	-11.3742
▁provincial	-11.3742
▁reclaim	-11.3742
▁rejoin	-11.3742
▁universities	-11.3742
▁nissan	-11.3742
▁slalom	-11.3742
▁strict	-11.3742
▁annika	-11.3742
▁anticipation	-11.3742
▁bradley	-11.3743
▁hottest	-11.3743
▁mask	-11.3743
kick	-11.3744
▁immigration	-11.3745
▁thick	-11.3745
▁chasing	-11.3745
▁centuries	-11.3745
▁healthcare	-11.3745
▁nail	-11.3747
▁married	-11.3747
-43	-11.3747
▁meat	-11.375
▁displaced	-11.3752
▁stent	-11.3753
▁outlaw	-11.3757
▁bugs	-11.3757
▁alberta	-11.3761
▁provisional	-11.3762
▁indexes	-11.3763
▁reeling	-11.3767
▁tariffs	-11.3768
▁airports	-11.3785
▁ear	-11.379
▁athlete	-11.3793
▁punt	-11.3793
▁jumping	-11.3799
▁decisions	-11.3799
▁exist	-11.3801
▁petrol	-11.3803
hl	-11.3803
▁lid	-11.3804
▁notebooks	-11.3805
▁$45	-11.3807
▁104	-11.3817
cash	-11.3822
▁dal	-11.3823
45	-11.3833
02	-11.3835
rand	-11.3836
▁stats	-11.3848
▁prayers	-11.3849
▁delight	-11.3851
▁doom	-11.3853
sponsored	-11.3857
session	-11.3858
century	-11.3858
toronto	-11.3858
flight	-11.3858
▁josh	-11.3859
▁specification	-11.3861
▁root	-11.3861
▁grade	-11.3864
▁lender	-11.3866
▁sole	-11.3867
▁franc	-11.387
▁stark	-11.3873
ski	-11.3875
tley	-11.388
▁speaker	-11.3887
▁routes	-11.3888
ock	-11.3888
▁glitch	-11.3892
zz	-11.3894
▁commodity	-11.3896
▁equivalent	-11.3896
▁jupiter	-11.3896
▁bulk	-11.3896
▁uganda	-11.3896
▁feud	-11.3896
▁arkansas	-11.3896
▁securing	-11.3896
▁sql	-11.3896
▁consolidation	-11.3896
▁alcohol	-11.3897
▁ligament	-11.3897
▁extraordinary	-11.3897
▁underground	-11.3897
▁burial	-11.3897
▁widen	-11.3898
▁australians	-11.3898
eck	-11.3898
dicating	-11.3899
▁numero	-11.3899
▁dublin	-11.39
▁marketwatch	-11.3902
▁oslo	-11.3902
▁0.6	-11.3902
▁cure	-11.3907
▁bounc	-11.3907
17	-11.3911
▁slumped	-11.3912
▁addresses	-11.3913
wich	-11.3919
nick	-11.392
▁facts	-11.3925
▁discussed	-11.3927
▁pink	-11.3931
▁roots	-11.3938
▁smashed	-11.394
5000	-11.394
▁intc	-11.3946
▁entirely	-11.3946
▁warne	-11.3952
ble	-11.3953
▁shoes	-11.3954
28	-11.396
oldest	-11.3962
pp	-11.3965
▁23-	-11.3972
▁crushing	-11.3973
▁moo	-11.3973
▁caps	-11.3974
▁reliev	-11.3978
▁tenn	-11.3985
▁invade	-11.4001
tom	-11.4004
▁aware	-11.4006
democracy	-11.4014
moscow	-11.4014
▁substance	-11.4018
▁dinosaur	-11.4018
▁wis	-11.4019
▁badly	-11.402
wal	-11.4023
▁zif	-11.4024
▁chipset	-11.4029
▁barr	-11.4031
paris	-11.4034
▁tension	-11.4034
▁stole	-11.4038
▁loose	-11.4041
drive	-11.4043
▁listing	-11.4044
ito	-11.4044
▁greene	-11.4045
▁dynamic	-11.4049
▁arguing	-11.4052
▁atrocities	-11.4052
▁bellwether	-11.4052
▁glance	-11.4052
▁heritage	-11.4052
▁registration	-11.4052
▁roethlisberger	-11.4052
▁jfk	-11.4052
▁repeal	-11.4052
▁surplus	-11.4052
▁ransom	-11.4052
▁mccain	-11.4052
▁lazard	-11.4052
▁qatar	-11.4052
▁marwan	-11.4052
▁cyclist	-11.4052
▁junta	-11.4052
▁petersburg	-11.4052
▁everywhere	-11.4052
▁slaying	-11.4053
▁reception	-11.4053
▁commentary	-11.4053
▁generator	-11.4054
▁jordanian	-11.4054
▁revolutionary	-11.4054
▁epic	-11.4055
▁consulting	-11.4055
▁5-0	-11.4055
▁cream	-11.4056
▁eruption	-11.4056
▁equipp	-11.4057
▁suspicious	-11.4057
used	-11.4057
▁novak	-11.4058
▁harrison	-11.4059
▁frequency	-11.4061
▁img	-11.4062
rock	-11.4066
rder	-11.4073
▁lucky	-11.4074
▁lava	-11.4076
-20	-11.4079
▁cracks	-11.4092
▁missions	-11.4092
75	-11.4096
▁requirements	-11.4106
list	-11.4108
▁95	-11.4108
▁casting	-11.4118
▁pi	-11.4124
▁glove	-11.4128
gate	-11.4128
▁bert	-11.4131
tata	-11.4131
lia	-11.4139
▁comp	-11.4139
51	-11.4156
price	-11.4156
▁usage	-11.4163
▁$600	-11.4163
▁cord	-11.4164
▁lease	-11.4165
▁performed	-11.4171
bloomberg	-11.4172
af	-11.4176
▁columnist	-11.4179
▁saint	-11.4181
▁degree	-11.4185
ax	-11.4189
▁contender	-11.419
▁putt	-11.4193
▁factions	-11.4199
▁imagine	-11.4199
▁satellites	-11.4201
▁lag	-11.4203
-19	-11.4205
▁thank	-11.4209
voluntary	-11.4211
▁consulate	-11.4211
▁encouraging	-11.4211
▁mckenzie	-11.4211
▁patience	-11.4211
▁simplify	-11.4211
▁thieves	-11.4211
▁beauty	-11.4211
▁bishop	-11.4211
▁clutch	-11.4211
▁fraudulent	-11.4211
▁hudson	-11.4211
▁providence	-11.4211
▁notorious	-11.4211
▁comparison	-11.4211
▁reorganization	-11.4211
▁sybase	-11.4211
▁rift	-11.4211
▁activat	-11.4211
interoperability	-11.4212
▁barrett	-11.4212
▁viagra	-11.4212
▁affordable	-11.4212
▁implementation	-11.4212
▁character	-11.4213
▁puert	-11.4213
▁1970	-11.4213
▁glow	-11.4215
▁bashir	-11.4215
▁coral	-11.422
▁iceland	-11.422
enko	-11.4222
▁grain	-11.4224
visible	-11.4224
▁robin	-11.4224
▁embarrassing	-11.4224
▁misleading	-11.4225
▁passion	-11.4225
▁depth	-11.4227
▁hunter	-11.4231
nor	-11.4231
▁convinced	-11.4232
ugh	-11.4237
▁lin	-11.4238
▁thrilling	-11.4242
▁stunt	-11.4244
▁midsize	-11.4245
▁complain	-11.4247
▁payton	-11.425
▁requir	-11.4254
▁theme	-11.4254
▁medicines	-11.4255
▁achieved	-11.4255
rick	-11.4257
ris	-11.4265
▁scandals	-11.4267
▁superb	-11.4271
▁2.8	-11.4289
iran	-11.4295
pm	-11.4299
tim	-11.4301
▁crops	-11.4308
▁collected	-11.4311
▁inmates	-11.4312
ison	-11.4315
▁sustain	-11.4323
▁infect	-11.4323
12	-11.4325
▁fielder	-11.433
yer	-11.4331
delayed	-11.4334
capable	-11.4339
plus	-11.434
▁embryo	-11.4344
▁citizen	-11.4345
▁finger	-11.4345
▁payroll	-11.4345
▁der	-11.435
200	-11.4354
▁annually	-11.4355
fish	-11.4359
▁conservation	-11.436
▁teachers	-11.4361
▁preserve	-11.4361
▁1200	-11.4366
▁fuels	-11.4369
▁sophisticat	-11.4371
▁downgrade	-11.4372
▁attitude	-11.4372
▁bristol	-11.4372
▁buddhist	-11.4372
▁captivity	-11.4372
▁concrete	-11.4372
▁explanation	-11.4372
▁galaxy	-11.4372
▁guerrero	-11.4372
▁lawrence	-11.4372
▁heaven	-11.4372
▁plasma	-11.4372
▁enhancements	-11.4372
▁cayman	-11.4372
▁excuse	-11.4372
▁cousin	-11.4372
▁flexible	-11.4372
▁meanwhile	-11.4372
▁relentless	-11.4372
▁cavs	-11.4372
▁finnish	-11.4372
▁rutan	-11.4372
▁snapped	-11.4373
▁imaging	-11.4373
▁capability	-11.4373
▁retiring	-11.4373
▁seville	-11.4373
▁romp	-11.4373
▁editorial	-11.4374
▁eserver	-11.4375
▁maintenance	-11.4375
▁poses	-11.4375
▁exciting	-11.4376
▁multibillion	-11.4376
▁yugoslav	-11.4376
▁superstar	-11.4377
▁nt	-11.4377
▁bandit	-11.4377
2004	-11.4378
▁memo	-11.4379
▁900	-11.4381
▁steelmaker	-11.4382
pat	-11.4382
▁truckers	-11.4383
▁3-6	-11.4384
mor	-11.4384
▁midst	-11.4386
fty	-11.4388
▁jenni	-11.4389
▁evacuated	-11.4393
gar	-11.4395
▁ordering	-11.44
▁benson	-11.4402
▁(8	-11.4404
▁contenders	-11.4406
▁mach	-11.4407
▁teamed	-11.4409
▁shrinking	-11.4413
ceo	-11.4416
smic	-11.4421
ita	-11.4421
▁dangers	-11.4428
stein	-11.443
▁mines	-11.4431
▁inspectors	-11.4435
▁flawed	-11.4436
nov	-11.4436
▁lit	-11.4439
▁blam	-11.4439
▁courts	-11.4441
zo	-11.4442
▁tackl	-11.4444
▁tackles	-11.4446
19	-11.4447
▁cer	-11.4451
▁reversed	-11.4453
▁semis	-11.446
▁georgian	-11.4462
elected	-11.4464
▁tightened	-11.4464
▁spirits	-11.4466
▁measured	-11.4472
▁drinking	-11.4475
▁skins	-11.4476
▁function	-11.4485
asia	-11.4487
lb	-11.4487
▁troubles	-11.4491
agle	-11.4492
david	-11.4498
-16	-11.45
woman	-11.45
performance	-11.45
▁blown	-11.4504
fighting	-11.4505
agent	-11.4508
▁nominee	-11.4509
▁lean	-11.4511
ification	-11.4515
▁devils	-11.4521
▁tick	-11.4523
▁efficient	-11.4534
▁anil	-11.4534
▁laud	-11.4535
▁horizon	-11.4536
▁maathai	-11.4536
▁outskirts	-11.4536
▁paisley	-11.4536
▁redknapp	-11.4536
▁ambani	-11.4536
▁monaco	-11.4536
▁airwaves	-11.4536
▁basra	-11.4536
▁felix	-11.4537
▁salmon	-11.4537
▁wilkinson	-11.4538
▁lima	-11.4538
▁shifting	-11.454
▁fiat	-11.454
▁liable	-11.4541
▁conte	-11.4542
isolated	-11.4543
95	-11.4544
▁wicket	-11.4544
oma	-11.4545
▁0-0	-11.4546
▁conflicts	-11.4549
▁$29	-11.4552
▁sinn	-11.4553
▁pete	-11.4561
▁30000	-11.4565
▁boot	-11.4572
▁sounded	-11.4574
thirds	-11.4575
▁touched	-11.4578
tur	-11.4584
▁packages	-11.4589
▁libyan	-11.4592
▁gases	-11.4596
▁skulls	-11.4599
ali	-11.46
▁coma	-11.4604
▁backers	-11.4605
▁pleased	-11.4605
▁hiv	-11.4609
23	-11.4612
▁jol	-11.4618
▁discs	-11.4618
▁sciences	-11.4627
▁volunteers	-11.4631
▁demo	-11.4632
▁artist	-11.4635
▁attended	-11.4641
▁younger	-11.4643
raw	-11.4645
▁killings	-11.4647
▁1.6	-11.4648
▁persist	-11.4653
key	-11.4658
▁hijack	-11.4661
▁traveling	-11.4662
▁prep	-11.4663
▁neighbour	-11.4679
gy	-11.4681
priced	-11.4683
thy	-11.4685
▁ati	-11.4685
▁comet	-11.4687
▁resumes	-11.4691
▁$18	-11.4693
▁ec	-11.4693
▁constant	-11.4694
▁bend	-11.4697
▁adelaide	-11.4703
▁caesars	-11.4703
▁compliance	-11.4703
▁kumble	-11.4703
▁murphy	-11.4703
▁stuttgart	-11.4703
▁websphere	-11.4703
▁fleming	-11.4703
▁goodbye	-11.4703
▁mirror	-11.4703
▁hispano	-11.4703
▁alexandria	-11.4703
▁loeb	-11.4703
▁cereal	-11.4703
▁pepper	-11.4703
▁fatah	-11.4703
▁ferrero	-11.4704
▁playboy	-11.4705
▁fein	-11.4705
▁unearth	-11.4706
▁banknorth	-11.4706
▁dying	-11.4707
▁downhill	-11.4708
▁aceh	-11.4708
▁dug	-11.4709
▁hospitality	-11.4711
▁6-5	-11.4711
▁tracy	-11.4711
▁$52	-11.4712
tass	-11.4715
▁pac	-11.4718
▁elements	-11.4721
▁unite	-11.4723
▁publication	-11.4724
48	-11.4725
▁spaceship	-11.4728
▁uphold	-11.4728
▁functions	-11.4729
▁payout	-11.4734
▁tapped	-11.4735
▁immigrants	-11.474
inter	-11.4742
▁propell	-11.4747
▁unman	-11.475
46	-11.4759
▁raced	-11.4762
▁stag	-11.4771
▁lies	-11.4772
▁swapping	-11.4775
▁shine	-11.4775
▁dim	-11.478
▁04	-11.4784
area	-11.4786
▁bump	-11.4788
dler	-11.4792
▁aired	-11.4803
▁thrash	-11.4809
54	-11.4809
▁roh	-11.481
▁50-	-11.4811
▁83	-11.4812
oo	-11.4815
fu	-11.482
▁directory	-11.482
2000	-11.4824
▁smash	-11.4824
▁insider	-11.4827
▁tightening	-11.4827
▁behead	-11.4828
▁nas	-11.4833
singapore	-11.4834
▁predicting	-11.4839
▁sack	-11.4841
▁locusts	-11.4842
cite	-11.4844
▁choices	-11.485
▁contested	-11.4852
▁demonstration	-11.4854
26	-11.4856
▁checking	-11.4857
▁0.3	-11.4859
▁2.3	-11.4865
▁fidel	-11.4871
▁110	-11.4872
sis	-11.4872
▁constellation	-11.4872
▁jihad	-11.4872
▁mydoom	-11.4872
▁nephew	-11.4872
▁strategies	-11.4872
▁villeneuve	-11.4872
▁wachovia	-11.4872
▁pujols	-11.4872
▁hilton	-11.4872
▁biometric	-11.4872
▁interference	-11.4872
▁transmission	-11.4872
▁rubble	-11.4872
▁telegraph	-11.4872
▁pixar	-11.4872
▁bucs	-11.4872
▁wrestling	-11.4873
▁skid	-11.4873
▁scoop	-11.4873
▁robson	-11.4873
▁devote	-11.4874
▁hawk	-11.4874
▁summon	-11.4875
▁desk	-11.4875
▁digest	-11.4876
▁kickoff	-11.4876
▁glitches	-11.4876
▁insisting	-11.4877
▁explor	-11.4877
▁heroes	-11.4882
▁indicates	-11.4882
▁diverted	-11.4884
▁revers	-11.4884
▁fray	-11.4885
▁assassinated	-11.4885
▁anyway	-11.489
▁jaw	-11.4891
▁lakes	-11.4891
▁thanou	-11.4891
▁revise	-11.4894
▁arabic	-11.4895
▁fallout	-11.4895
▁buses	-11.4896
▁outright	-11.4897
▁informed	-11.4904
▁meta	-11.4905
intel	-11.491
▁5-3	-11.4911
▁watches	-11.4911
▁unleashed	-11.4911
▁dunc	-11.4911
ua	-11.4915
▁covered	-11.4925
▁methods	-11.4925
▁hbos	-11.4934
▁cheat	-11.4935
▁op	-11.4939
▁switching	-11.4945
turn	-11.4949
▁bones	-11.4952
▁divisions	-11.4953
vers	-11.4955
vian	-11.4961
▁dry	-11.4966
▁stok	-11.4973
▁soup	-11.498
book	-11.4998
rated	-11.4999
▁petro	-11.5
▁teens	-11.5005
hon	-11.5006
hitter	-11.5009
▁recommendations	-11.5014
▁mill	-11.5015
lese	-11.5018
▁oppose	-11.5019
▁remind	-11.5023
▁elephants	-11.5027
▁edward	-11.503
▁birdies	-11.503
graph	-11.503
▁mental	-11.5031
▁shipment	-11.5034
▁robb	-11.5034
dale	-11.5038
▁bra	-11.5041
▁basket	-11.5045
▁albanian	-11.5045
▁coveted	-11.5045
▁epidemic	-11.5045
▁ferdinand	-11.5045
▁gallery	-11.5045
▁intensified	-11.5045
▁leinart	-11.5045
▁racism	-11.5045
▁rouge	-11.5045
▁shrimp	-11.5045
▁sophomore	-11.5045
▁srichaphan	-11.5045
▁stomach	-11.5045
▁thompson	-11.5045
▁2.7	-11.5045
▁endorse	-11.5045
▁earliest	-11.5045
▁indictment	-11.5045
▁medication	-11.5045
▁shrek	-11.5045
▁blueprint	-11.5045
▁automatically	-11.5046
▁abduction	-11.5046
▁staple	-11.5046
▁doug	-11.5047
▁middleware	-11.5047
▁aluminum	-11.5048
▁scratch	-11.5048
▁assam	-11.5049
▁clark	-11.5049
▁brighten	-11.5049
rrington	-11.505
ira	-11.5051
▁eyed	-11.5051
▁johannesburg	-11.5052
▁lady	-11.5052
▁tide	-11.5053
▁15000	-11.5057
▁horn	-11.5065
▁blaze	-11.5067
nell	-11.5068
real	-11.5071
▁tame	-11.5072
▁den	-11.5074
▁payrolls	-11.5075
▁referr	-11.5075
▁script	-11.5076
▁fledg	-11.5077
▁1-2	-11.5077
▁1.2	-11.5079
▁cambodian	-11.508
▁lenders	-11.5087
▁nod	-11.5089
▁kar	-11.5092
▁recorder	-11.5093
▁generated	-11.5096
47	-11.5097
▁controll	-11.5099
▁$1.2	-11.5101
▁wann	-11.5103
▁stressed	-11.5104
▁1.4	-11.5112
▁disciplin	-11.5114
▁bout	-11.5115
▁forgotten	-11.5132
▁solo	-11.5144
▁les	-11.5146
▁russians	-11.5146
▁gearing	-11.5146
▁$2.	-11.5148
▁sas	-11.5148
▁cafes	-11.5156
▁traces	-11.5156
▁$51	-11.5157
aries	-11.516
▁honored	-11.5165
▁dock	-11.5166
▁detain	-11.5175
what	-11.5176
untrust	-11.5184
▁understanding	-11.5184
▁pleading	-11.5186
▁lauren	-11.5194
▁ky	-11.5195
▁cigarette	-11.5204
▁ancestor	-11.5205
▁evacuation	-11.5205
▁procedure	-11.5207
▁inventor	-11.5208
▁irs	-11.5214
nom	-11.5216
oli	-11.5219
▁upgraded	-11.522
▁apologise	-11.522
▁belichick	-11.522
▁hokies	-11.522
▁intensify	-11.522
▁matsushita	-11.522
▁paradorn	-11.522
▁prairie	-11.522
▁proprietary	-11.522
▁pursuing	-11.522
▁1997	-11.522
▁declaring	-11.522
▁dillon	-11.522
▁reassure	-11.522
▁bubble	-11.522
▁cska	-11.522
▁nashville	-11.522
▁farewell	-11.522
▁woodward	-11.522
▁ariz	-11.5221
▁lightning	-11.5221
▁munch	-11.5221
▁javi	-11.5221
▁microchip	-11.5222
▁railway	-11.5222
▁revival	-11.5222
▁marred	-11.5222
▁proud	-11.5222
▁hernandez	-11.5222
▁brilliant	-11.5222
▁auditors	-11.5223
▁repay	-11.5223
▁perez	-11.5223
▁doubtful	-11.5224
▁jiang	-11.5226
▁conquer	-11.5226
▁nowhere	-11.5227
ksin	-11.5228
▁ruben	-11.523
▁unlike	-11.5231
▁fidelity	-11.5231
▁churches	-11.5231
▁helm	-11.5232
▁pinch	-11.5237
▁thaw	-11.5239
enove	-11.524
▁grilled	-11.524
▁gunn	-11.5241
▁defer	-11.5244
tony	-11.5244
▁finishes	-11.5246
▁vitali	-11.5247
▁trap	-11.5248
▁$23	-11.5249
▁hears	-11.5249
▁finalized	-11.5251
▁shirt	-11.5253
▁serves	-11.5256
▁admitt	-11.5257
▁jerom	-11.5268
▁kicker	-11.5275
ura	-11.5276
▁disappear	-11.5286
▁boxer	-11.5286
watch	-11.5288
nm	-11.5292
▁tally	-11.5293
▁spoil	-11.5296
▁admit	-11.5303
▁$13	-11.5306
▁mom	-11.5308
▁polar	-11.5316
74	-11.5322
▁senators	-11.5328
▁workstations	-11.5329
▁tx	-11.533
ui	-11.5331
▁fc	-11.5335
alone	-11.5336
▁drill	-11.5337
▁types	-11.5348
▁beside	-11.5351
ile	-11.5358
▁carly	-11.5358
hd	-11.5359
imo	-11.5359
▁saves	-11.536
second	-11.5361
with	-11.5362
▁gb	-11.5364
2003	-11.5367
▁indicate	-11.537
▁breed	-11.5374
▁hail	-11.538
ians	-11.5381
▁tone	-11.5383
▁tu	-11.5385
▁reshuffle	-11.5386
▁disruption	-11.5392
▁approaching	-11.5392
▁survives	-11.5393
▁foe	-11.5396
imated	-11.5396
▁ballpark	-11.5399
▁disarmament	-11.5399
▁jurors	-11.5399
▁mcgrady	-11.5399
▁nalbandian	-11.5399
▁portuguese	-11.5399
▁podium	-11.5399
▁vieira	-11.5399
▁radiation	-11.5399
▁functionality	-11.5399
▁destination	-11.5399
▁kurdish	-11.5399
▁demonstrators	-11.5399
▁fading	-11.5399
▁danish	-11.54
stedt	-11.5402
▁woolworths	-11.5402
▁gut	-11.5403
▁pave	-11.5403
▁refusal	-11.5404
▁burns	-11.5404
▁alcs	-11.5405
▁kate	-11.5406
▁lifestyle	-11.5406
▁km	-11.5407
▁fury	-11.5408
▁succession	-11.5411
itive	-11.5411
▁reactor	-11.5412
quest	-11.5413
▁dive	-11.5415
arch	-11.5417
▁coors	-11.5418
▁trek	-11.5418
itz	-11.5419
▁nationalist	-11.542
▁28-	-11.5422
▁ditch	-11.5424
▁argued	-11.5424
▁marc	-11.5428
▁broadcaster	-11.543
max	-11.5433
▁mapp	-11.5433
▁gate	-11.5441
▁mason	-11.5441
ible	-11.5442
▁spar	-11.5444
char	-11.5447
▁doomed	-11.5455
▁infring	-11.5455
32	-11.5455
▁wmt	-11.5457
▁thigh	-11.5457
▁bae	-11.546
▁oa	-11.5461
▁97	-11.5465
▁reap	-11.5477
gotten	-11.5478
▁forums	-11.5482
▁weaken	-11.5484
▁3.5	-11.5484
▁taba	-11.5487
▁chest	-11.5488
▁sponsored	-11.5488
▁jazeera	-11.549
▁willis	-11.5494
rk	-11.5498
▁ole	-11.5501
▁max	-11.5502
▁studying	-11.5505
rais	-11.5505
▁ski	-11.5506
▁improves	-11.5511
stitutional	-11.5514
42	-11.5515
reach	-11.5525
▁printing	-11.5529
▁12000	-11.553
rmo	-11.5533
neck	-11.5536
▁brush	-11.5539
panel	-11.5539
▁90-	-11.5539
management	-11.5542
bomb	-11.5552
▁shrug	-11.5554
▁stretched	-11.5556
▁hate	-11.5558
open	-11.5563
▁mock	-11.5564
▁remembered	-11.5566
▁haunt	-11.5568
nnn	-11.557
▁gilbert	-11.5572
▁nano	-11.5573
▁automat	-11.5574
▁exposed	-11.5575
▁subscriber	-11.5576
▁temper	-11.5578
▁mario	-11.5578
▁consensus	-11.558
▁enemies	-11.558
▁maneuver	-11.558
▁otellini	-11.558
▁quincy	-11.558
▁thorpe	-11.558
▁tungsten	-11.558
▁veerappan	-11.558
▁superior	-11.558
▁vatican	-11.558
▁2004-05	-11.558
▁keegan	-11.558
▁mohammad	-11.558
▁revolt	-11.558
▁dominican	-11.558
▁telecast	-11.5581
xinhuanet	-11.5581
▁keane	-11.5581
▁finley	-11.5581
▁tenure	-11.5581
▁thinkpad	-11.5581
▁bowden	-11.5581
▁psv	-11.5581
▁naval	-11.5581
▁punishment	-11.5582
▁unhappy	-11.5582
▁recount	-11.5583
▁classified	-11.5583
▁reluctant	-11.5584
▁bread	-11.5585
▁hurl	-11.5586
▁truly	-11.5586
hen	-11.5587
standing	-11.5591
▁dev	-11.5592
▁icann	-11.5593
▁primari	-11.5594
▁225	-11.5596
▁compare	-11.5596
▁seller	-11.5597
▁ala	-11.5602
▁finances	-11.5603
raig	-11.5605
▁brook	-11.5611
kh	-11.5611
▁$85	-11.5613
tx	-11.5614
▁bosses	-11.5614
gp	-11.5615
saving	-11.5619
▁hart	-11.5626
▁responding	-11.5626
zer	-11.5633
▁suspensions	-11.5634
▁outlets	-11.5639
▁discounts	-11.5641
▁solicit	-11.5642
▁pr	-11.5648
▁minn	-11.5649
▁revived	-11.5653
soft	-11.5657
▁sz	-11.566
▁cu	-11.5662
▁snaps	-11.5664
▁failures	-11.5664
▁lankan	-11.5665
rry	-11.5667
▁charm	-11.5668
35	-11.5669
▁critically	-11.5677
mayer	-11.568
▁eliminat	-11.5689
ox	-11.5695
ach	-11.5696
▁outages	-11.5703
▁oppos	-11.5704
▁measur	-11.5704
▁nest	-11.5712
▁perth	-11.5714
-24	-11.5715
percent	-11.5721
music	-11.5724
▁touted	-11.5726
federal	-11.5728
canada	-11.5728
france	-11.5729
metre	-11.573
▁outpost	-11.5732
uala	-11.5733
▁provision	-11.5736
paul	-11.5739
▁dram	-11.5744
▁counterparts	-11.5745
▁regulate	-11.5747
▁135	-11.5749
▁qualifiers	-11.5749
ied	-11.5752
▁ruin	-11.5753
▁dept	-11.5763
▁adelphia	-11.5766
▁cabrera	-11.5766
▁cinema	-11.5766
▁conversation	-11.5766
▁curfew	-11.5766
▁drastic	-11.5766
▁graduate	-11.5766
▁predecessor	-11.5766
▁triangle	-11.5766
▁adwords	-11.5766
▁babies	-11.5766
▁churn	-11.5766
goldwyn	-11.5766
▁intact	-11.5766
▁patterson	-11.5766
▁width	-11.5766
▁reference	-11.5766
▁smell	-11.5766
▁gauge	-11.5766
▁admission	-11.5766
▁bunch	-11.5766
▁hideout	-11.5767
▁linksys	-11.5767
▁kati	-11.5767
▁gogh	-11.577
▁wakefield	-11.5771
▁rematch	-11.5771
▁colour	-11.5773
▁cellphones	-11.5774
ching	-11.5775
▁joke	-11.5777
▁caz	-11.5778
▁interfax	-11.5779
▁advanc	-11.5783
▁cache	-11.5784
▁whatever	-11.5786
nanometer	-11.5787
▁bike	-11.5796
center	-11.5797
▁olympia	-11.5797
▁whistle	-11.5797
▁rec	-11.5801
▁consequences	-11.5804
▁shore	-11.5805
▁shakes	-11.5806
▁favored	-11.5807
▁dj	-11.5809
▁wondering	-11.5812
rod	-11.5813
▁organized	-11.5822
▁secondary	-11.5823
ight	-11.5824
▁94	-11.5826
sonic	-11.583
▁rex	-11.583
▁auditor	-11.5832
▁dominat	-11.5836
▁criminals	-11.5839
▁th	-11.584
▁2001.	-11.5844
▁somali	-11.5844
▁rooms	-11.5858
▁shortages	-11.5865
▁happens	-11.5867
▁98	-11.5871
▁breathing	-11.5873
▁levi	-11.5875
▁distribut	-11.5875
▁karl	-11.5886
▁builder	-11.589
▁avoided	-11.589
▁guess	-11.5891
▁falter	-11.5893
▁brave	-11.5894
direct	-11.5896
▁$1.8	-11.5898
▁wraps	-11.5898
▁rig	-11.59
face	-11.59
▁runners	-11.59
▁nab	-11.5903
▁cruis	-11.5904
opening	-11.5906
▁cart	-11.5908
german	-11.5909
27	-11.5911
limited	-11.5916
doping	-11.5917
rov	-11.5931
▁prob	-11.5931
▁swede	-11.5939
▁rallying	-11.5939
▁designs	-11.5943
▁seiz	-11.5951
▁neighbors	-11.5952
▁bonus	-11.5953
▁buckeyes	-11.5954
▁jeddah	-11.5954
▁acclaim	-11.5954
▁definitely	-11.5954
▁embedd	-11.5954
▁entrance	-11.5954
▁furniture	-11.5954
▁gardner	-11.5954
▁gutierrez	-11.5954
▁inflict	-11.5954
▁minimum	-11.5954
▁observatory	-11.5954
▁dinner	-11.5954
▁idaho	-11.5954
▁mittal	-11.5954
▁solberg	-11.5954
▁#821	-11.5954
▁lazio	-11.5954
▁reggie	-11.5954
▁motorcycle	-11.5954
▁verify	-11.5954
▁objections	-11.5955
▁tesco	-11.5955
▁lavish	-11.5955
▁$10.3	-11.5955
▁fragile	-11.5955
▁quell	-11.5955
▁confirmation	-11.5957
▁suburban	-11.5957
▁guru	-11.5957
▁palestine	-11.5958
▁belief	-11.5958
▁waive	-11.5958
▁safeway	-11.5958
▁completion	-11.5958
▁tendon	-11.5958
▁sessions	-11.5959
▁dismissal	-11.5959
▁musicians	-11.5959
▁saban	-11.596
ette	-11.5962
▁rite	-11.5963
▁techs	-11.5964
▁bogu	-11.5965
▁(10	-11.5966
▁topple	-11.5967
▁mountains	-11.5967
▁hungry	-11.5968
▁void	-11.5969
▁pipelines	-11.597
▁def	-11.5972
▁ignored	-11.5977
▁makeover	-11.5979
▁wipe	-11.5982
▁runoff	-11.5987
▁abused	-11.5987
istic	-11.599
▁foiled	-11.5991
▁advertisers	-11.5993
▁deposit	-11.5998
▁stat	-11.6011
▁$3.	-11.6013
▁lehmann	-11.6013
▁tripled	-11.6014
bell	-11.6015
▁rider	-11.602
cor	-11.6021
▁ci	-11.6022
▁pats	-11.6027
ker	-11.603
link	-11.6035
▁ord	-11.6038
▁trims	-11.604
ella	-11.6041
▁loaded	-11.6042
▁tee	-11.6046
▁marian	-11.6048
▁exception	-11.6058
▁rouse	-11.6058
▁40-	-11.6062
▁denounce	-11.6069
lier	-11.607
▁geo	-11.6072
▁$1.9	-11.6089
▁ut	-11.6089
▁sponsor	-11.61
▁villages	-11.6101
brien	-11.6108
wicket	-11.6109
earlier	-11.6109
onics	-11.6111
▁bother	-11.6112
▁lately	-11.6116
hong	-11.6119
gie	-11.6124
▁clo	-11.6133
▁obvious	-11.6133
▁terminate	-11.6135
mmc	-11.6135
▁prestig	-11.6137
▁stored	-11.6137
▁pun	-11.614
▁wings	-11.6142
nys	-11.6143
▁suburb	-11.6144
▁comfort	-11.6145
▁bizarre	-11.6147
▁garciaparra	-11.6147
▁hemisphere	-11.6147
▁millennium	-11.6147
▁obesity	-11.6147
▁ordinary	-11.6147
▁plutonium	-11.6147
▁pummel	-11.6147
▁riyadh	-11.6147
▁stabilize	-11.6147
▁technological	-11.6147
▁oxford	-11.6147
▁selig	-11.6147
▁stranded	-11.6147
▁calpers	-11.6147
▁colombo	-11.6147
▁intervene	-11.6147
▁jermain	-11.6147
▁802.11	-11.6147
▁ajax	-11.6147
▁molson	-11.6147
▁nasty	-11.6147
▁silva	-11.6147
▁pennant	-11.6148
▁tyco	-11.6148
▁airlift	-11.6148
▁spinning	-11.6148
▁keynote	-11.6148
nte	-11.615
▁eligible	-11.6151
▁inspection	-11.6151
▁incentive	-11.6151
▁presentation	-11.6152
▁chess	-11.6152
▁richardson	-11.6153
▁sims	-11.6154
▁tab	-11.6156
andro	-11.6157
▁massu	-11.6158
▁7.7	-11.6158
▁je	-11.6159
nik	-11.616
ual	-11.6161
▁dating	-11.6162
▁plo	-11.6164
▁trends	-11.6165
▁6:	-11.6166
iya	-11.6167
▁faulty	-11.617
andy	-11.6171
▁walks	-11.6171
eta	-11.6176
▁byrd	-11.6176
▁boots	-11.6176
▁attached	-11.6177
▁cooperate	-11.6178
▁soul	-11.6179
▁bargains	-11.618
▁roaming	-11.618
▁normally	-11.6182
▁scenes	-11.6184
▁characters	-11.6184
fc	-11.6184
▁apec	-11.6185
▁solved	-11.6188
▁400-	-11.6189
▁sever	-11.6189
▁stated	-11.6197
▁turk	-11.6198
▁packing	-11.6198
kill	-11.62
▁contractors	-11.6202
▁forecasters	-11.6202
▁joey	-11.6208
▁mus	-11.6209
▁dur	-11.621
ku	-11.6211
▁3.7	-11.6215
▁wil	-11.622
▁afford	-11.6223
▁koreans	-11.6226
▁rico	-11.6226
▁merca	-11.6226
▁hitter	-11.6228
▁deserter	-11.623
▁char	-11.6234
▁avoiding	-11.6238
▁bloggers	-11.6243
31	-11.6243
▁hacking	-11.6245
▁trains	-11.6246
▁str	-11.6246
▁heal	-11.6257
▁lip	-11.6259
▁poisoning	-11.6261
▁chains	-11.6264
▁27-	-11.6267
▁lesson	-11.6269
▁greeting	-11.6274
eng	-11.6281
▁nationals	-11.6292
▁relax	-11.6294
▁contacts	-11.6295
▁choos	-11.6297
iko	-11.6322
▁4500	-11.6322
▁interviews	-11.6322
▁passport	-11.6325
pre	-11.6325
▁finn	-11.6328
▁1600	-11.6328
▁refuge	-11.6329
▁footballer	-11.633
aka	-11.6331
-12	-11.6332
▁panic	-11.6335
▁lessons	-11.6338
▁extinct	-11.6341
bridge	-11.6342
▁judicia	-11.6342
▁fiction	-11.6343
▁absorb	-11.6343
▁beautiful	-11.6343
▁bernabeu	-11.6343
▁bhopal	-11.6343
▁clement	-11.6343
▁disengagement	-11.6343
▁grokster	-11.6343
▁heathrow	-11.6343
▁hormone	-11.6343
▁impasse	-11.6343
▁incursion	-11.6343
▁marriott	-11.6343
▁mcgrath	-11.6343
▁mysql	-11.6343
▁nottingham	-11.6343
▁premature	-11.6343
▁reconsider	-11.6343
▁scuffle	-11.6343
▁tissue	-11.6343
▁vessel	-11.6343
▁harbor	-11.6343
▁cultural	-11.6343
▁gillette	-11.6343
▁grievance	-11.6343
▁residence	-11.6343
▁tumor	-11.6343
▁colonial	-11.6343
▁thump	-11.6343
▁borland	-11.6343
▁jammu	-11.6343
▁everybody	-11.6343
▁sponsorship	-11.6343
▁victorious	-11.6343
▁pardon	-11.6343
▁pepsico	-11.6344
▁1994	-11.6344
▁gran	-11.6344
▁searched	-11.6345
▁consistent	-11.6345
▁flyby	-11.6346
▁$1.25	-11.6346
▁bullet	-11.6348
▁passage	-11.6348
▁indeed	-11.6348
▁conferencing	-11.6348
▁iii	-11.6349
human	-11.6349
▁interception	-11.635
▁shelter	-11.6351
▁protesting	-11.6351
▁alleges	-11.6351
ucci	-11.6351
▁operative	-11.6355
▁ecb	-11.6356
▁tricks	-11.6356
▁70000	-11.6358
▁lawmaker	-11.6359
ws	-11.6366
▁consoles	-11.637
▁fri	-11.6378
wight	-11.6381
▁musical	-11.6384
▁scatter	-11.6389
▁mergers	-11.6396
big	-11.6397
▁noon	-11.6403
▁slot	-11.6405
▁lifetime	-11.6406
450	-11.6406
▁downplay	-11.6408
▁pipe	-11.6408
5)	-11.6417
▁doughnuts	-11.6418
▁pressured	-11.6422
▁sin	-11.6422
fr	-11.6431
▁practical	-11.6432
▁homecoming	-11.6433
▁curbs	-11.6435
▁kin	-11.6441
imposed	-11.6441
sley	-11.6443
▁lp	-11.6448
▁performances	-11.6453
▁motorsports	-11.6454
▁listening	-11.6461
▁lap	-11.6464
chan	-11.6474
▁developments	-11.6477
▁crossed	-11.6488
▁restor	-11.6495
america	-11.6497
▁franco	-11.6498
ati	-11.6498
▁propel	-11.6502
linux	-11.6505
nu	-11.6506
nations	-11.651
▁succeeded	-11.6512
city	-11.6514
▁200-	-11.6516
▁forests	-11.6521
mrk	-11.6521
▁outrage	-11.6525
▁laura	-11.6527
▁sharks	-11.653
▁mut	-11.6531
▁regrets	-11.6531
▁inq	-11.6531
▁zen	-11.6538
▁finalist	-11.6539
▁tempt	-11.6542
▁behalf	-11.6542
▁achilles	-11.6543
▁celebrity	-11.6543
▁creek	-11.6543
▁debris	-11.6543
▁elusive	-11.6543
▁grumman	-11.6543
▁kpmg	-11.6543
▁macintosh	-11.6543
▁marijuana	-11.6543
▁sihanouk	-11.6543
▁stuart	-11.6543
▁surcharge	-11.6543
▁swirl	-11.6543
▁xstrata	-11.6543
▁zvonareva	-11.6543
▁belfast	-11.6543
▁warehouse	-11.6543
▁lynn	-11.6543
▁elbaradei	-11.6543
▁bahamas	-11.6543
▁smack	-11.6543
▁expedition	-11.6543
▁roadmap	-11.6543
▁anglo	-11.6543
▁dismal	-11.6543
▁geographic	-11.6543
▁opposite	-11.6543
▁fanning	-11.6543
▁monarch	-11.6543
▁ghost	-11.6544
▁funny	-11.6544
▁financier	-11.6545
▁cats	-11.6546
▁rollout	-11.6547
▁abortion	-11.6549
▁robertson	-11.655
▁slaughter	-11.6551
▁grind	-11.6551
▁consideration	-11.6552
▁spies	-11.6552
▁fever	-11.6552
▁colony	-11.6553
▁nerve	-11.6554
▁shade	-11.6554
▁regret	-11.6555
▁airplane	-11.6555
▁$3.4	-11.6556
▁roof	-11.6556
▁poorest	-11.6557
▁jumper	-11.6558
▁baton	-11.656
▁conservationist	-11.656
▁anonymous	-11.6563
▁brake	-11.6564
▁plagu	-11.6564
▁spying	-11.6565
ierre	-11.6567
▁2002.	-11.6568
▁jess	-11.657
▁guaranteed	-11.657
shire	-11.6571
▁1.9	-11.6574
▁endorsed	-11.658
▁liberia	-11.658
800	-11.6585
ide	-11.6587
even	-11.6592
▁$1.4	-11.6596
▁shaken	-11.6597
bil	-11.6597
roy	-11.6598
▁owes	-11.66
▁bats	-11.6602
▁chamber	-11.6603
▁listings	-11.6605
▁frenchman	-11.6609
fired	-11.6611
▁invad	-11.6611
▁drilling	-11.6614
ord	-11.6614
▁homeless	-11.6615
41	-11.662
▁diseases	-11.6622
▁50000	-11.6628
▁bang	-11.6633
▁inject	-11.6647
▁cheered	-11.6651
▁restored	-11.6654
▁corrected	-11.6654
▁sweat	-11.6655
looking	-11.6658
cube	-11.6664
▁krist	-11.6666
sony	-11.6672
sandisk	-11.6674
ancy	-11.6682
▁couples	-11.6683
▁bon	-11.6686
▁resum	-11.6686
▁speedy	-11.6694
ik	-11.6703
system	-11.6708
miami	-11.6709
morgan	-11.6709
▁nudge	-11.6711
▁pier	-11.6716
▁quant	-11.6719
▁topics	-11.672
▁midwest	-11.6722
▁jak	-11.6723
▁element	-11.6725
goal	-11.6725
▁advisor	-11.6735
▁adventure	-11.6735
▁prey	-11.6739
och	-11.6741
dou	-11.6743
▁activate	-11.6746
▁autonomy	-11.6747
▁bulldogs	-11.6747
▁buttiglione	-11.6747
▁dilemma	-11.6747
▁mcdowell	-11.6747
▁missteps	-11.6747
▁mitchell	-11.6747
▁physics	-11.6747
▁rhetoric	-11.6747
▁utilities	-11.6747
▁pinsent	-11.6747
▁rumble	-11.6747
▁underdog	-11.6747
▁jacob	-11.6747
▁wgc	-11.6747
▁misery	-11.6747
▁sleek	-11.6747
▁breeze	-11.6747
▁wildcats	-11.6747
▁christophe	-11.6747
▁optimization	-11.6747
▁randall	-11.6747
▁browsing	-11.6747
▁windfall	-11.6747
▁reconstruction	-11.6747
▁blogging	-11.6747
▁citizenship	-11.6747
▁strife	-11.6748
▁seagate	-11.6748
▁sharman	-11.6748
▁panda	-11.6748
▁archrival	-11.6748
▁peers	-11.6749
▁batch	-11.6749
▁shouldn	-11.675
▁greenberg	-11.675
▁zafi	-11.675
▁qualified	-11.6751
▁sacrifice	-11.6752
▁ibook	-11.6752
▁brisk	-11.6753
▁netware	-11.6753
▁beltre	-11.6754
▁mari	-11.6755
▁yang	-11.6756
▁workplace	-11.6756
▁ferry	-11.6758
▁brock	-11.6758
lim	-11.6759
▁stellar	-11.6759
night	-11.6759
▁incredible	-11.6761
isation	-11.6764
uous	-11.6764
▁concession	-11.6764
▁eleven	-11.6764
▁eagerly	-11.6768
▁socialist	-11.6769
▁downgraded	-11.6769
▁teacher	-11.677
▁pure	-11.6771
▁worrying	-11.6772
▁faction	-11.6773
▁poly	-11.6773
▁rattled	-11.6773
▁grad	-11.6773
▁bottle	-11.6776
▁desperately	-11.678
bby	-11.6782
▁embryos	-11.6783
▁keeper	-11.6783
cla	-11.6785
mph	-11.6788
▁bre	-11.6789
▁tiebreak	-11.679
▁debts	-11.679
▁bloomberg	-11.6797
▁aapl	-11.68
▁intra	-11.6801
▁halts	-11.6804
borough	-11.681
▁delighted	-11.6811
▁fie	-11.6813
vote	-11.6815
▁flurr	-11.6818
▁donors	-11.6826
▁anfield	-11.6828
fan	-11.6829
▁poisoned	-11.684
mouth	-11.6851
has	-11.6856
▁bags	-11.6856
ink	-11.6856
▁mia	-11.6856
▁lovers	-11.6866
▁uc	-11.6866
onzo	-11.6866
▁somalia	-11.6867
▁prevented	-11.6868
▁values	-11.687
iz	-11.6876
▁pci	-11.6879
▁gaz	-11.6879
▁canadians	-11.688
ggle	-11.6882
bc	-11.6884
▁suggestions	-11.6891
ridge	-11.6891
▁maximu	-11.69
▁founded	-11.69
▁dealer	-11.6903
▁alternatives	-11.6908
▁starters	-11.691
▁californian	-11.6916
enhanc	-11.6916
now	-11.6917
▁sway	-11.6917
income	-11.6917
prize	-11.6918
rio	-11.6918
▁bowler	-11.6918
irish	-11.6919
▁attending	-11.6919
▁circle	-11.692
person	-11.6922
▁rewards	-11.6922
rin	-11.6929
▁pressures	-11.6929
▁risky	-11.693
▁jens	-11.6936
▁ethiopia	-11.6939
jet	-11.694
▁scrapp	-11.6946
▁differ	-11.6948
▁amounts	-11.6948
▁inspections	-11.6951
fixing	-11.6953
ollah	-11.6955
palmolive	-11.6955
▁commodities	-11.6955
▁flexibility	-11.6955
▁frenzy	-11.6955
▁litigation	-11.6955
▁rhode	-11.6955
▁rutgers	-11.6955
▁shinawatra	-11.6955
▁shuffle	-11.6955
▁sukarnoputri	-11.6955
▁territories	-11.6955
▁waziristan	-11.6955
▁1992	-11.6955
▁himalaya	-11.6955
▁dioxide	-11.6955
▁ratification	-11.6955
▁girlfriend	-11.6955
▁navigation	-11.6955
▁geico	-11.6955
quality	-11.6956
▁maiden	-11.6956
▁chiron	-11.6956
▁richmond	-11.6957
▁bandwidth	-11.6958
▁organize	-11.6958
ure	-11.6959
▁devastation	-11.6959
▁ayat	-11.6959
▁nextwave	-11.6961
▁ratified	-11.6966
▁shaun	-11.6967
▁7-3	-11.6968
▁tempe	-11.6968
▁kerr	-11.697
▁wifi	-11.697
▁spray	-11.697
▁hatch	-11.6972
▁participants	-11.6973
▁$7.	-11.6974
▁elephant	-11.6976
▁pray	-11.6978
▁relat	-11.6978
▁broadcasters	-11.6982
▁monty	-11.6983
▁cheers	-11.6985
▁peaks	-11.6988
bid	-11.6988
▁penny	-11.6992
▁bla	-11.6994
▁pickup	-11.6996
rant	-11.7006
▁mobil	-11.7008
▁swu	-11.701
attered	-11.7013
aol	-11.7017
ene	-11.7018
▁complained	-11.7018
▁clusters	-11.7027
▁popul	-11.703
▁likes	-11.704
▁bath	-11.7041
pot	-11.7045
▁matters	-11.7047
moni	-11.7049
bert	-11.7053
▁pur	-11.7058
▁acts	-11.7061
▁suppliers	-11.7062
▁2000.	-11.7063
▁$150	-11.7064
▁$38	-11.7065
▁soap	-11.7069
ean	-11.7076
▁teenagers	-11.7077
▁amit	-11.7082
▁smartphones	-11.7083
ties	-11.7085
times	-11.7086
▁sham	-11.7088
healthdaynews	-11.7088
▁flows	-11.7089
kel	-11.7089
▁schu	-11.7097
▁bolt	-11.71
▁exploits	-11.71
▁caller	-11.71
▁trailing	-11.7102
▁brew	-11.7103
▁maxim	-11.7105
▁lloyds	-11.7105
▁doubl	-11.7108
sri	-11.7108
gal	-11.7111
▁losers	-11.7121
▁bot	-11.7122
▁assert	-11.7125
▁mention	-11.7125
▁dl	-11.7126
▁households	-11.7127
sky	-11.7128
ikk	-11.7129
blue	-11.713
▁stockpiles	-11.713
opec	-11.7131
▁booked	-11.7134
ele	-11.715
att	-11.715
▁refin	-11.7151
▁ash	-11.7159
dding	-11.7164
▁1100	-11.7166
▁redeploy	-11.7167
▁autumn	-11.7168
▁ecuador	-11.7168
▁eindhoven	-11.7168
▁gannon	-11.7168
▁liquor	-11.7168
▁module	-11.7168
▁mogul	-11.7168
▁motogp	-11.7168
▁shevchenko	-11.7168
▁talladega	-11.7168
▁vacuum	-11.7168
▁welfare	-11.7168
▁beverage	-11.7168
▁bosox	-11.7168
▁balloon	-11.7168
▁fireworks	-11.7168
▁apache	-11.7168
▁dunn	-11.7168
▁jungle	-11.7168
▁imperial	-11.7168
unconstitutional	-11.7168
▁peek	-11.7168
▁jackpot	-11.7168
▁safeguard	-11.7168
▁lieber	-11.7168
▁melvin	-11.7168
▁discrimination	-11.7169
▁morocco	-11.7169
▁medley	-11.7169
▁heinz	-11.7169
▁juice	-11.7169
▁entertain	-11.7169
▁contrast	-11.7169
▁marino	-11.7169
▁methane	-11.7169
▁induce	-11.717
▁bovina	-11.717
▁nhlpa	-11.7171
▁subway	-11.7172
▁geoff	-11.7172
▁attractive	-11.7173
▁morrison	-11.7174
▁hospitalized	-11.7174
▁timetable	-11.7175
▁fitting	-11.7177
▁linda	-11.7179
▁hung	-11.7179
yan	-11.718
▁worldcom	-11.7181
▁complicated	-11.7181
▁nathan	-11.7181
▁evolve	-11.7189
hir	-11.7191
▁dates	-11.7191
▁heightened	-11.7191
▁nomination	-11.7191
▁formation	-11.7193
weight	-11.7193
▁defuse	-11.7195
▁aere	-11.7199
▁meal	-11.72
▁7.0	-11.7201
▁photographer	-11.7211
▁coron	-11.7212
erson	-11.7212
▁cla	-11.7216
▁discipline	-11.7224
▁kosta	-11.7225
korean	-11.7232
wall	-11.7238
▁heights	-11.7239
▁outer	-11.7242
▁beware	-11.7242
▁wise	-11.7245
uit	-11.7246
▁tuck	-11.7246
▁cheating	-11.7247
ddy	-11.7248
▁slides	-11.7249
loved	-11.7251
▁ark	-11.7254
▁cry	-11.7254
ila	-11.7254
lam	-11.7257
▁dad	-11.7273
▁quakes	-11.7273
▁que	-11.7274
▁spreads	-11.7277
▁ape	-11.7279
▁pitchers	-11.728
▁endur	-11.7283
tun	-11.7287
oning	-11.7287
unt	-11.7289
csi	-11.7292
cic	-11.7298
▁pdas	-11.7306
▁appliances	-11.7307
▁rowing	-11.7311
▁evans	-11.7311
▁explains	-11.7311
▁governors	-11.7319
▁baron	-11.732
▁eggs	-11.7321
met	-11.7322
part	-11.7334
▁sonics	-11.7335
gard	-11.7337
▁swell	-11.7338
▁indoors	-11.7338
best	-11.734
john	-11.7341
▁sentences	-11.7342
▁expires	-11.7343
october	-11.7347
houston	-11.7347
morning	-11.7347
seattle	-11.7347
▁pil	-11.7353
▁victoria	-11.7357
tail	-11.7367
▁tube	-11.7369
▁exclud	-11.7369
driven	-11.7369
rey	-11.7372
▁heats	-11.7377
▁execute	-11.7378
▁ellis	-11.7382
▁disagree	-11.7384
▁catalog	-11.7385
▁clarett	-11.7385
▁communicator	-11.7385
▁compatriot	-11.7385
▁conversion	-11.7385
▁dakota	-11.7385
▁demolition	-11.7385
▁disastrous	-11.7385
▁edmonton	-11.7385
▁elizabeth	-11.7385
▁embark	-11.7385
▁extensive	-11.7385
▁glaus	-11.7385
▁hilfiger	-11.7385
▁imprisoned	-11.7385
▁minaya	-11.7385
▁nowitzki	-11.7385
▁rogge	-11.7385
▁thirty	-11.7385
▁weightlifter	-11.7385
▁spacewalk	-11.7385
▁welsh	-11.7385
▁adultery	-11.7385
▁galactic	-11.7385
prnewswire	-11.7385
▁peruvian	-11.7386
▁inauguration	-11.7386
▁drunken	-11.7386
▁curtain	-11.7386
▁defraud	-11.7386
▁elimination	-11.7387
▁1991	-11.7387
▁liquidation	-11.7387
▁taser	-11.7387
▁injunction	-11.7388
▁brisbane	-11.7388
▁nebraska	-11.7388
▁35-	-11.7389
▁hutchison	-11.7389
▁ronaldo	-11.7392
▁forever	-11.7392
▁potent	-11.7393
▁somewhat	-11.7393
▁inflated	-11.7395
▁located	-11.7396
▁profitability	-11.7397
▁bells	-11.7398
olu	-11.7398
▁metals	-11.7398
▁oak	-11.7398
▁turnout	-11.7399
▁contained	-11.74
▁celebrations	-11.7401
▁exam	-11.7401
eye	-11.7402
▁ideal	-11.7402
▁domini	-11.7403
▁holdout	-11.7405
▁beaches	-11.741
▁opposes	-11.7411
▁87	-11.7412
▁headache	-11.7414
▁thumb	-11.7415
▁ouster	-11.7416
▁acknowledge	-11.7417
▁quarterfinal	-11.7418
▁refund	-11.7419
▁noise	-11.7419
▁$43	-11.7427
▁severely	-11.7428
▁riots	-11.7433
▁cue	-11.7434
▁flown	-11.7434
▁employer	-11.7435
oct	-11.7437
arm	-11.7443
▁115	-11.7443
▁mot	-11.7445
▁hijacked	-11.7448
▁sara	-11.7456
68	-11.7457
spite	-11.7457
▁hum	-11.746
▁licensed	-11.7461
ara	-11.7462
▁foray	-11.7471
▁feeds	-11.7473
agging	-11.7475
▁outlin	-11.7477
▁suitor	-11.7477
▁rattle	-11.7478
league	-11.7478
ram	-11.7479
pay	-11.7487
sey	-11.7487
▁rash	-11.7492
▁skill	-11.7496
▁historical	-11.7497
▁sage	-11.7498
hill	-11.7499
▁vie	-11.75
▁41-	-11.7507
▁shia	-11.7507
2.5	-11.7508
▁wanting	-11.751
▁lawn	-11.7512
▁preferr	-11.7517
fo	-11.7519
▁escap	-11.7519
▁93	-11.7524
▁dish	-11.7525
▁towers	-11.7533
▁collaborate	-11.7535
▁boasts	-11.7542
▁notables	-11.7543
▁administrators	-11.7545
▁multimillion	-11.7548
▁vera	-11.7549
-11	-11.7551
uick	-11.7557
processor	-11.7569
▁firmer	-11.7569
enabled	-11.7569
=1	-11.757
trading	-11.757
aapl	-11.7572
▁magnet	-11.7575
ich	-11.7577
gged	-11.7579
building	-11.758
▁rid	-11.7584
icy	-11.7587
▁defi	-11.7588
▁cope	-11.7589
▁malls	-11.7591
▁cling	-11.7592
▁steals	-11.7596
▁utter	-11.7598
pass	-11.7599
▁skate	-11.76
▁trusted	-11.7605
▁diversifi	-11.7606
▁fig	-11.7606
fast	-11.7607
▁credibility	-11.7607
▁culpepper	-11.7607
▁havoc	-11.7607
▁hispanic	-11.7607
▁jeopardy	-11.7607
▁portrait	-11.7607
▁scrambling	-11.7607
▁swoop	-11.7607
▁televised	-11.7607
▁undecided	-11.7607
▁stereo	-11.7607
illery	-11.7607
▁bleak	-11.7607
▁ignoring	-11.7608
▁trounce	-11.7608
▁renteria	-11.7608
▁metropoli	-11.7608
▁marxis	-11.7608
▁kilometers	-11.7608
▁denmark	-11.7608
▁childhood	-11.7608
▁mikh	-11.7608
▁deportation	-11.7608
▁drain	-11.7608
▁niche	-11.7608
▁hinder	-11.7609
▁betti	-11.7609
▁netsky	-11.761
▁construct	-11.761
▁quitting	-11.7611
▁scout	-11.7612
▁rebellion	-11.7612
▁determination	-11.7613
▁unarmed	-11.7613
▁experienc	-11.7613
▁fabric	-11.7613
▁anymore	-11.7613
▁trash	-11.7613
▁moham	-11.7614
▁batman	-11.7614
▁intensive	-11.7615
▁steadily	-11.7615
▁uproot	-11.7618
▁directv	-11.7618
▁replay	-11.762
▁bison	-11.7621
▁bagle	-11.7621
▁doc	-11.7625
▁deserved	-11.7625
▁rear	-11.7625
▁associate	-11.7626
▁candy	-11.7629
▁millionaire	-11.7631
▁spinner	-11.7632
▁tricky	-11.7632
▁200000	-11.7634
boy	-11.7635
▁assurance	-11.764
▁accelerated	-11.764
▁paralympic	-11.7642
▁stride	-11.7642
ire	-11.7643
▁boil	-11.7643
▁installation	-11.7644
segun	-11.7645
▁shines	-11.7645
▁73	-11.7651
▁crippled	-11.7652
lisa	-11.7653
▁stevens	-11.7654
▁sheet	-11.7655
▁purpose	-11.7656
▁mmc	-11.7657
show	-11.7658
xa	-11.7661
▁habitat	-11.7666
▁topic	-11.7669
▁innovati	-11.7671
▁rumours	-11.7671
▁105	-11.7671
▁usher	-11.7675
uce	-11.7675
▁$22	-11.7679
▁shap	-11.7682
▁particles	-11.7689
▁environments	-11.7689
form	-11.7694
▁surfaced	-11.7696
▁seekers	-11.7698
ographic	-11.77
▁tds	-11.7705
▁capsules	-11.7706
how	-11.771
▁32-	-11.7713
▁patriot	-11.7724
wick	-11.7725
sex	-11.7725
▁103	-11.7728
tex	-11.7732
▁val	-11.7742
▁117	-11.7745
▁raf	-11.7746
▁underscor	-11.7748
▁toss	-11.7763
▁span	-11.7765
iki	-11.7768
▁surviv	-11.7768
▁guid	-11.7769
ology	-11.778
▁nationally	-11.7781
▁$700	-11.7781
rox	-11.7782
bbi	-11.7791
▁airliners	-11.7794
europe	-11.7795
profit	-11.7796
brook	-11.7796
description	-11.7797
jerusalem	-11.7797
baseball	-11.7797
authorized	-11.7798
lit	-11.78
▁flags	-11.7805
▁hog	-11.7817
▁farms	-11.782
▁roofs	-11.7822
shi	-11.7824
▁realize	-11.7824
▁surprises	-11.7826
tarian	-11.7827
▁retailing	-11.7829
▁treasure	-11.7831
▁ameri	-11.7833
▁corrupt	-11.7834
lihood	-11.7834
▁blank	-11.7834
▁wolf	-11.7835
enrnq	-11.7835
▁bhutto	-11.7835
▁buckingham	-11.7835
▁catastrophe	-11.7835
▁champagne	-11.7835
▁coliseum	-11.7835
▁contingent	-11.7835
▁coventry	-11.7835
▁fantasy	-11.7835
▁gilchrist	-11.7835
▁intelligent	-11.7835
▁khatami	-11.7835
▁lahore	-11.7835
▁nielsen	-11.7835
▁obasanjo	-11.7835
▁onslaught	-11.7835
▁reprieve	-11.7835
▁tarnish	-11.7835
▁umpire	-11.7835
▁wolverines	-11.7835
▁aeronautic	-11.7835
▁oswalt	-11.7835
▁diebold	-11.7835
▁rebuke	-11.7835
▁salaries	-11.7835
▁spider	-11.7835
▁glad	-11.7835
▁sabre	-11.7835
▁wolfsburg	-11.7835
▁accelerating	-11.7835
▁iverson	-11.7835
▁traction	-11.7835
▁furcal	-11.7835
▁severance	-11.7835
▁slapped	-11.7835
▁megson	-11.7835
▁reliable	-11.7835
▁jefferson	-11.7835
▁pivotal	-11.7835
▁skeptical	-11.7836
▁softball	-11.7836
▁diva	-11.7836
▁mahal	-11.7837
▁anastasi	-11.7838
▁confidential	-11.7838
▁neutral	-11.7839
▁satisfaction	-11.7839
▁sanders	-11.7839
▁tend	-11.784
▁sweeten	-11.784
▁couch	-11.784
▁edgar	-11.7841
alai	-11.7842
▁deliberately	-11.7842
▁lama	-11.7842
▁santos	-11.7843
▁satisfied	-11.7843
bill	-11.7843
▁kashmiri	-11.7845
▁informal	-11.7846
▁properly	-11.7846
▁vw	-11.7847
▁salesforce	-11.7847
▁bcci	-11.7848
▁loft	-11.7848
▁moral	-11.785
▁yum	-11.7857
▁aston	-11.7858
▁define	-11.7859
▁impressed	-11.7864
▁davidson	-11.7866
▁pu	-11.7866
▁circulating	-11.787
▁till	-11.787
spate	-11.7874
▁achievement	-11.7874
▁airstrike	-11.7875
▁monkey	-11.7875
zeri	-11.7875
▁stockpile	-11.7875
▁locust	-11.7875
watchers	-11.7876
▁contribution	-11.7877
▁ridge	-11.7877
▁fracture	-11.7878
▁recommendation	-11.7878
▁spammer	-11.7882
▁nit	-11.7882
zy	-11.7885
▁102	-11.7886
▁sticks	-11.7887
▁checked	-11.789
epp	-11.7893
▁fare	-11.7894
▁projection	-11.7895
▁speakers	-11.7898
▁donations	-11.7899
▁advertisements	-11.7902
▁balanced	-11.7904
▁examin	-11.7908
▁inner	-11.791
▁heir	-11.7915
▁defendants	-11.7918
bble	-11.7924
▁techweb	-11.7925
▁surfing	-11.793
▁101	-11.7931
allied	-11.7933
▁(5)	-11.7933
softbank	-11.7933
▁converted	-11.7934
▁accuser	-11.7936
▁114	-11.7938
▁operates	-11.7947
▁mesh	-11.7947
▁overturned	-11.7948
▁walls	-11.7949
▁spr	-11.7953
34	-11.7956
▁knowing	-11.7958
rnett	-11.7958
▁talented	-11.7961
▁4.0	-11.7962
▁apologiz	-11.7962
ranging	-11.7963
leg	-11.7971
gue	-11.7972
▁hotly	-11.7975
▁protester	-11.7984
▁isps	-11.7987
▁amr	-11.7993
▁stabb	-11.7997
▁pubs	-11.8
▁mn	-11.8007
▁howe	-11.8008
▁predictions	-11.8013
▁newman	-11.8014
▁bidders	-11.8018
▁conservatives	-11.8018
▁notch	-11.802
▁deport	-11.8025
lc	-11.8026
▁ahma	-11.8026
▁mello	-11.8026
▁contributions	-11.8027
elli	-11.8028
sistani	-11.8029
disputed	-11.8029
dutch	-11.803
chief	-11.803
secure	-11.803
▁fin	-11.803
▁receivers	-11.8031
▁flip	-11.8034
order	-11.8039
▁zo	-11.8045
will	-11.8048
▁tunes	-11.8052
▁exact	-11.8054
▁sectors	-11.8061
▁chronic	-11.8062
▁authorize	-11.8063
▁inspect	-11.8064
▁dismantle	-11.8065
▁exhibit	-11.8066
▁humiliat	-11.8066
▁participati	-11.8067
rocco	-11.8067
▁ashcroft	-11.8067
▁compuware	-11.8067
▁connectivity	-11.8067
▁copernic	-11.8067
▁credentials	-11.8067
▁equestrian	-11.8067
▁explicit	-11.8067
▁influenza	-11.8067
▁intrusion	-11.8067
▁legitimate	-11.8067
▁mallorca	-11.8067
▁mcgahee	-11.8067
▁mubarak	-11.8067
▁netegrity	-11.8067
▁odyssey	-11.8067
▁satisfy	-11.8067
▁sophos	-11.8067
▁thrive	-11.8067
▁enact	-11.8067
▁travis	-11.8067
▁holtz	-11.8067
▁registry	-11.8067
▁shearer	-11.8067
▁wrongdoing	-11.8067
▁stelco	-11.8067
▁guidelines	-11.8067
▁rigged	-11.8067
▁murray	-11.8067
▁torrential	-11.8067
▁priorities	-11.8068
▁halloween	-11.8068
▁francona	-11.8068
▁dumping	-11.8068
▁bettman	-11.8068
▁lagos	-11.8068
▁middleweight	-11.8068
▁virtualization	-11.8069
▁diana	-11.8069
▁diagnos	-11.8069
▁waltham	-11.807
▁nickel	-11.8071
▁coleman	-11.8071
▁unofficial	-11.8071
▁glasgow	-11.8071
▁1918	-11.8071
▁felony	-11.8072
case	-11.8072
▁mourners	-11.8073
pan	-11.8073
▁intruder	-11.8073
▁retained	-11.8075
▁dear	-11.8077
▁multiplex	-11.8078
▁justify	-11.8078
sir	-11.8079
▁kidnappings	-11.8079
▁connor	-11.808
▁valve	-11.8083
▁dire	-11.8084
▁backward	-11.8087
▁reid	-11.8087
▁criticised	-11.8089
▁plugged	-11.809
▁kidde	-11.809
▁substantially	-11.809
▁touches	-11.809
▁apes	-11.8091
▁expire	-11.8095
▁conclude	-11.81
▁conditional	-11.81
▁snag	-11.8103
▁flushing	-11.8106
▁biz	-11.8109
▁venue	-11.8112
▁obstacle	-11.8112
▁sensor	-11.8114
▁bangladeshi	-11.8117
disk	-11.812
-1/2	-11.812
▁toppled	-11.8122
▁designate	-11.8123
▁captur	-11.8126
▁slate	-11.8127
▁vincen	-11.8132
hall	-11.8137
77	-11.814
▁hoo	-11.8148
here	-11.8149
▁tail	-11.815
▁nukes	-11.8153
▁shame	-11.8158
▁3.3	-11.8158
▁ravag	-11.816
gett	-11.8164
▁rarely	-11.8177
▁rebuilding	-11.818
▁settler	-11.8185
▁crashing	-11.8187
▁washed	-11.8188
▁stale	-11.8197
▁brin	-11.8203
▁ye	-11.8211
▁4.5	-11.8213
▁exchanges	-11.8215
▁organi	-11.8216
▁popp	-11.8218
▁sons	-11.8221
▁rainy	-11.8222
▁transferr	-11.8222
tria	-11.8228
▁cave	-11.8236
stop	-11.8237
kil	-11.8239
stro	-11.8245
▁dup	-11.8246
▁edt	-11.8247
▁volumes	-11.8255
▁announcements	-11.8256
gio	-11.8257
ii	-11.8259
group	-11.8263
▁designers	-11.8263
shirt	-11.8263
▁jos	-11.8264
▁clip	-11.8267
wealth	-11.8267
beijing	-11.8267
baghdad	-11.8267
▁purposes	-11.8268
wash	-11.8269
▁witnessed	-11.8269
ranking	-11.827
▁treatments	-11.8276
▁packs	-11.8278
ado	-11.8283
▁assassinate	-11.8288
▁croatia	-11.8289
▁bowling	-11.8293
▁routing	-11.8294
▁viewed	-11.8301
▁prohibit	-11.8302
▁caterpillar	-11.8305
▁chennai	-11.8305
▁diouf	-11.8305
▁filderstadt	-11.8305
▁garner	-11.8305
▁genuine	-11.8305
▁martnez	-11.8305
▁merchandise	-11.8305
▁monument	-11.8305
▁purchasing	-11.8305
▁radioactive	-11.8305
▁scenario	-11.8305
▁stamford	-11.8305
▁vazquez	-11.8305
▁watson	-11.8305
▁dixon	-11.8305
▁exxon	-11.8305
▁latter	-11.8305
▁protein	-11.8305
▁belgrade	-11.8305
▁bellamy	-11.8305
▁bloodshed	-11.8305
▁arbitrator	-11.8305
▁argos	-11.8305
▁proxy	-11.8305
▁integrity	-11.8305
▁seizure	-11.8305
▁celesti	-11.8306
▁clothes	-11.8306
▁recreation	-11.8306
▁leonid	-11.8306
▁wentworth	-11.8306
▁excitement	-11.8306
▁sergeant	-11.8306
▁ghana	-11.8307
▁domination	-11.8307
strom	-11.8307
▁anthem	-11.8308
▁barney	-11.8308
▁cpu	-11.8309
▁istanbul	-11.8309
▁background	-11.8309
▁trent	-11.8309
▁groin	-11.8311
▁reti	-11.8311
▁dragon	-11.8313
▁laos	-11.8313
▁yemeni	-11.8314
▁wolves	-11.8314
▁3500	-11.8315
▁mercy	-11.8315
▁depleted	-11.8315
▁8-3	-11.8316
cher	-11.8318
▁ordeal	-11.8322
epid	-11.8324
▁legs	-11.8325
▁invented	-11.8326
▁photography	-11.8327
▁martial	-11.8327
▁downer	-11.8328
▁moody	-11.8331
▁naga	-11.8332
eur	-11.8333
▁naming	-11.8333
▁partially	-11.8336
▁kuwaiti	-11.8337
▁9-	-11.8337
late	-11.8346
▁fingers	-11.8348
▁propos	-11.8355
▁concerning	-11.8358
▁bidder	-11.8358
▁cardinal	-11.8359
▁excel	-11.8362
▁loves	-11.8362
▁basel	-11.8364
▁archaeologists	-11.8364
▁wheat	-11.8365
pointer	-11.8365
▁deck	-11.8366
▁raft	-11.8367
▁noticed	-11.8369
▁disappeared	-11.8371
▁item	-11.8375
▁lineman	-11.838
▁fur	-11.8382
hai	-11.8383
▁750	-11.8388
▁fier	-11.8388
get	-11.839
▁hinge	-11.8391
▁endless	-11.8394
▁flames	-11.8394
▁swatch	-11.8395
▁divers	-11.8401
▁sellers	-11.8403
▁apiece	-11.8406
▁requests	-11.841
▁quota	-11.841
iah	-11.8411
▁corn	-11.8412
story	-11.8415
▁2.9	-11.8415
▁$2.6	-11.8421
▁$87	-11.8423
▁gps	-11.8426
▁speculat	-11.8432
▁spectators	-11.8435
▁floating	-11.8435
▁$3.5	-11.8443
roughly	-11.8448
▁disasters	-11.8452
▁voiced	-11.8459
have	-11.846
▁expell	-11.8462
▁indoor	-11.8464
▁2.1	-11.8464
▁adv	-11.8467
▁publish	-11.8473
▁bash	-11.8478
▁kil	-11.8484
▁lend	-11.8488
▁7:	-11.8488
▁objects	-11.8491
▁parker	-11.8493
utu	-11.8494
base	-11.8504
▁shatter	-11.8506
▁occur	-11.851
master	-11.8514
▁trimm	-11.8516
backs	-11.8526
▁macedonia	-11.8533
nard	-11.8534
ike	-11.8537
▁elder	-11.8537
▁guille	-11.8539
▁shelters	-11.854
▁shrink	-11.8541
▁locks	-11.8549
▁bucharest	-11.8549
▁chunk	-11.8549
▁compensate	-11.8549
▁concussion	-11.8549
▁erdogan	-11.8549
▁federated	-11.8549
▁gunbattle	-11.8549
▁principal	-11.8549
▁religion	-11.8549
▁repurchase	-11.8549
▁resumption	-11.8549
▁samuel	-11.8549
▁thrust	-11.8549
▁twickenham	-11.8549
▁voluntarily	-11.8549
▁spadea	-11.8549
▁unisys	-11.8549
▁douglas	-11.8549
▁lodge	-11.8549
▁stefan	-11.8549
▁skyrocket	-11.8549
▁placing	-11.855
▁kirkuk	-11.855
▁queue	-11.855
▁shaking	-11.855
▁$8.8	-11.855
▁thunder	-11.855
▁belonging	-11.8551
▁automation	-11.8551
▁depress	-11.8551
▁$430	-11.8551
▁helsinki	-11.8552
▁darkness	-11.8552
▁stoppage	-11.8552
▁norton	-11.8553
▁kosovo	-11.8554
wan	-11.8554
▁brees	-11.8554
▁bonuses	-11.8554
▁mineral	-11.8555
▁treasurer	-11.8557
▁leeds	-11.8557
▁sullivan	-11.8557
▁penal	-11.8558
▁0.4	-11.8558
▁leaderboard	-11.8558
▁accountant	-11.8559
▁'04	-11.856
▁barber	-11.8561
▁mediator	-11.8561
▁torch	-11.8562
▁greenback	-11.8562
▁sgi	-11.8564
lee	-11.8564
▁swings	-11.8565
▁rah	-11.8567
pie	-11.8568
▁nasd	-11.8576
▁keys	-11.8579
▁publicity	-11.8579
lly	-11.858
▁wealthy	-11.8581
any	-11.8592
▁hood	-11.8593
▁elan	-11.8593
stat	-11.8595
▁rage	-11.86
▁ruler	-11.8601
biological	-11.8605
▁philly	-11.8607
▁extremist	-11.8608
▁insects	-11.8609
▁prediction	-11.8611
▁enabl	-11.862
▁eco	-11.8621
▁pleas	-11.8622
itar	-11.8622
▁scal	-11.8623
▁offences	-11.8634
habi	-11.8635
▁dashed	-11.8636
:05	-11.8638
▁examined	-11.8639
-28	-11.8643
▁mcc	-11.8645
▁gil	-11.8648
▁lining	-11.8648
▁digg	-11.8648
▁springs	-11.8649
▁jewel	-11.8653
▁pl	-11.8653
▁pigs	-11.8656
▁31-	-11.8659
series	-11.866
train	-11.8662
cham	-11.8665
▁controller	-11.8667
▁airliner	-11.867
▁scar	-11.8672
look	-11.8675
▁techniques	-11.8675
▁robbi	-11.8677
▁router	-11.8681
logic	-11.8682
▁ranch	-11.869
▁anne	-11.8691
▁fade	-11.8695
▁34-	-11.8695
tton	-11.8698
▁comm	-11.8701
union	-11.8702
placed	-11.8705
▁screening	-11.871
▁organiz	-11.871
▁customiz	-11.8717
eight	-11.8722
▁gore	-11.8728
▁fer	-11.8728
▁500000	-11.873
▁respected	-11.8732
▁borrow	-11.8737
▁$42	-11.8739
vic	-11.8743
dine	-11.8748
▁wen	-11.8752
▁billing	-11.8756
count	-11.8759
paper	-11.8759
seat	-11.8761
december	-11.8761
yahoo	-11.8761
november	-11.8761
barrel	-11.8761
country	-11.8762
▁foil	-11.8763
▁2500	-11.8763
flying	-11.8765
▁107	-11.8766
national	-11.8771
ants	-11.8776
western	-11.8785
▁tra	-11.8787
sses	-11.8792
▁squeez	-11.8794
▁niger	-11.8799
▁cemex	-11.8799
▁composite	-11.8799
▁decapitated	-11.8799
▁henrik	-11.8799
▁implications	-11.8799
▁inadequate	-11.8799
▁legislature	-11.8799
▁lieutenant	-11.8799
▁procurement	-11.8799
▁reynolds	-11.8799
▁rosenborg	-11.8799
▁smuggling	-11.8799
▁uruguay	-11.8799
▁bogey	-11.8799
▁oecd	-11.8799
▁santini	-11.8799
▁terps	-11.8799
▁quinn	-11.8799
▁martinsville	-11.8799
▁skating	-11.8799
▁capitol	-11.8799
▁uconn	-11.8799
▁jews	-11.8799
▁slack	-11.88
▁hicks	-11.88
▁default	-11.88
▁configuration	-11.88
▁chuck	-11.88
▁erik	-11.88
▁cattle	-11.88
six	-11.88
▁attendance	-11.88
▁simulator	-11.88
▁memorabl	-11.88
▁endorsement	-11.88
▁probation	-11.88
▁ricard	-11.8801
▁opel	-11.8801
▁excessive	-11.8801
▁somewhere	-11.8802
▁feroci	-11.8802
fusion	-11.8803
▁barnes	-11.8804
▁neill	-11.8804
▁substitute	-11.8804
▁subdued	-11.8804
▁okla	-11.8804
▁creep	-11.8805
▁everett	-11.8805
▁difficulties	-11.8806
▁saks	-11.8806
▁perks	-11.8806
▁crazy	-11.8807
▁beaver	-11.8807
▁tasks	-11.8808
▁vcr	-11.8808
▁sierra	-11.881
▁advised	-11.881
▁wishes	-11.881
▁prolong	-11.8811
main	-11.8811
▁kane	-11.8814
▁sensational	-11.8814
amount	-11.8814
licia	-11.8816
plough	-11.8817
▁deem	-11.8818
▁accomplished	-11.8821
▁0.5	-11.8833
afx	-11.8833
grunt	-11.884
▁legally	-11.8842
▁incorporate	-11.8842
▁presid	-11.8845
▁shorten	-11.8847
▁marv	-11.8855
▁manner	-11.8858
▁scrapped	-11.8858
▁consultant	-11.8862
▁plain	-11.8867
▁morale	-11.8873
▁microprocessors	-11.8874
▁ante	-11.8875
▁mystics	-11.8876
▁kicking	-11.8884
▁weakening	-11.8887
▁jitters	-11.8891
▁julian	-11.8892
▁$36	-11.8897
▁smarter	-11.8898
sea	-11.8899
▁sharper	-11.8908
▁fisher	-11.891
elect	-11.8911
aki	-11.8912
▁neo	-11.892
▁earning	-11.8921
▁proven	-11.8924
nas	-11.8928
▁rud	-11.8929
300	-11.8929
06	-11.8931
▁gill	-11.8931
▁tur	-11.8931
▁rad	-11.8933
▁braces	-11.8935
▁funa	-11.8943
▁bj	-11.8943
table	-11.8945
tying	-11.8945
6.5	-11.8949
suf	-11.8959
▁guests	-11.8961
ask	-11.8964
▁bore	-11.8964
▁amend	-11.8966
▁horses	-11.8968
▁washing	-11.8968
tier	-11.897
▁hr	-11.8973
▁wally	-11.8974
▁concentrate	-11.8975
▁pinn	-11.8977
bach	-11.8983
▁des	-11.8985
usa	-11.8986
elon	-11.8987
▁grove	-11.8991
pac	-11.8994
▁sensors	-11.9006
ngle	-11.9011
▁impo	-11.9012
▁bor	-11.9015
stream	-11.9016
brew	-11.9017
from	-11.9018
▁loom	-11.9018
north	-11.9024
▁dart	-11.9024
spain	-11.9026
uz	-11.9028
▁batt	-11.9032
▁heartbreak	-11.9036
nson	-11.9036
oh	-11.9038
▁$60	-11.9039
cio	-11.9039
▁sensation	-11.9041
.75	-11.9041
▁coat	-11.9046
kim	-11.9047
▁mcd	-11.9048
▁occasion	-11.9052
▁administrati	-11.9052
▁dispos	-11.9052
▁possess	-11.9053
▁abdul	-11.9056
▁fantastic	-11.9056
▁guerrouj	-11.9056
▁headscarves	-11.9056
▁immunity	-11.9056
▁knife	-11.9056
▁lakshmi	-11.9056
▁pippen	-11.9056
▁porsche	-11.9056
▁refinancing	-11.9056
▁tabloid	-11.9056
▁trulli	-11.9056
▁bennett	-11.9056
▁ethernet	-11.9056
▁licence	-11.9056
▁prague	-11.9056
▁rebate	-11.9056
gloria	-11.9056
▁fergie	-11.9056
▁logistics	-11.9056
▁ratify	-11.9056
▁hartford	-11.9056
▁larsson	-11.9056
▁smiling	-11.9056
▁libel	-11.9056
kmrt	-11.9056
▁hoax	-11.9056
▁9.0	-11.9056
▁obstruction	-11.9057
▁loyalty	-11.9057
▁transmit	-11.9057
distant	-11.9057
▁trafficking	-11.9058
▁deportivo	-11.9058
▁sammy	-11.9058
▁impression	-11.9058
▁vacan	-11.9058
▁homestead	-11.9059
▁'05	-11.9059
▁fitness	-11.9059
▁pleasant	-11.9059
▁awake	-11.9059
▁assume	-11.9059
gr	-11.9059
▁shores	-11.9061
▁canberra	-11.9061
aylor	-11.9061
▁sheep	-11.9061
▁proper	-11.9061
▁leftwich	-11.9062
▁$140	-11.9064
▁tragic	-11.9064
▁rang	-11.9069
▁detection	-11.907
▁corpses	-11.907
catel	-11.907
▁daylight	-11.9071
▁hampton	-11.9072
nerable	-11.9072
▁macedonian	-11.9073
▁sober	-11.9075
▁noble	-11.9075
▁handicap	-11.9075
tiana	-11.9076
▁humanity	-11.9077
▁sharpen	-11.9078
▁supercomputers	-11.908
▁mard	-11.9084
▁2.4	-11.9086
kina	-11.9086
600	-11.9088
▁expressing	-11.909
▁sacks	-11.909
rell	-11.909
▁pic	-11.9093
fit	-11.9095
▁emerges	-11.91
▁laurent	-11.9101
▁mistaken	-11.9101
▁masses	-11.9107
hs	-11.9108
▁pirate	-11.9111
▁chipsets	-11.9112
▁arabs	-11.9119
▁relieve	-11.9119
▁yo	-11.9123
▁mil	-11.9125
▁signature	-11.9126
▁revision	-11.9127
▁insight	-11.9129
▁clinche	-11.9131
▁oliver	-11.9132
▁booster	-11.9134
lated	-11.9134
▁$26	-11.9139
▁biologists	-11.914
▁reed	-11.9141
▁bru	-11.9142
yip	-11.9143
▁sparta	-11.9146
▁mb	-11.9149
▁punter	-11.9151
▁champs	-11.9156
▁gentle	-11.9158
▁106	-11.9161
hyun	-11.9166
▁freely	-11.9167
▁tay	-11.9168
uch	-11.917
▁140	-11.917
▁derailed	-11.9171
▁underlin	-11.9173
▁kiwis	-11.918
een	-11.9181
▁kr	-11.9185
▁$75	-11.9187
▁streaming	-11.9188
▁chants	-11.9197
keeper	-11.92
▁ze	-11.9201
▁wang	-11.9208
▁db	-11.9213
▁hurts	-11.9217
▁mend	-11.922
▁vent	-11.9221
▁emails	-11.9221
▁wallets	-11.9221
arity	-11.9222
▁suck	-11.9222
rid	-11.9223
▁$1.6	-11.9225
▁evaluat	-11.9226
▁hank	-11.9227
erial	-11.9231
▁scans	-11.9243
▁enabled	-11.9243
▁smb	-11.9244
beat	-11.9245
▁clerics	-11.9246
▁mortars	-11.9248
▁overheat	-11.9256
▁happening	-11.9259
just	-11.927
▁ringing	-11.9274
▁kiss	-11.9275
▁projections	-11.9275
fare	-11.9275
public	-11.9278
guard	-11.9279
language	-11.9281
people	-11.9281
defense	-11.9281
sept	-11.9285
▁speeding	-11.9286
server	-11.9288
study	-11.9288
▁laps	-11.929
angled	-11.929
▁42-	-11.9292
▁babe	-11.9295
▁reductions	-11.9297
▁108	-11.9299
▁chambers	-11.9303
▁minors	-11.9304
▁burge	-11.9309
▁exhaust	-11.9318
gigabyte	-11.9319
▁enthusiasm	-11.9319
▁floridians	-11.9319
▁froogle	-11.9319
▁gbagbo	-11.9319
▁gonzale	-11.9319
▁improbable	-11.9319
▁indigenous	-11.9319
▁laureate	-11.9319
▁misconduct	-11.9319
▁nicaragua	-11.9319
▁outweigh	-11.9319
▁propulsion	-11.9319
▁sarkozy	-11.9319
▁staunch	-11.9319
▁ubiquit	-11.9319
▁unfortunate	-11.9319
▁unravel	-11.9319
▁chassis	-11.9319
▁literally	-11.9319
▁marque	-11.9319
▁polio	-11.9319
▁zombie	-11.9319
▁enlarge	-11.9319
▁zemin	-11.9319
▁compelling	-11.9319
▁novo	-11.9319
▁akron	-11.9319
▁clough	-11.9319
▁embarrassment	-11.9319
▁snack	-11.9319
▁woodgate	-11.9319
▁slick	-11.9319
▁greensboro	-11.9319
▁feb	-11.9319
▁courtesy	-11.9319
▁montana	-11.9319
▁cornell	-11.9319
▁kroger	-11.9319
▁rojo	-11.932
▁riley	-11.932
▁tripoli	-11.932
▁milton	-11.932
▁insult	-11.932
▁transformation	-11.932
▁psychological	-11.9321
▁writedown	-11.9321
▁carmelo	-11.9321
▁wbc	-11.9321
▁cliff	-11.9322
▁frederic	-11.9322
▁gunship	-11.9322
▁whit	-11.9322
▁blunt	-11.9322
▁toledo	-11.9322
▁gunpoint	-11.9322
▁gilles	-11.9323
▁gsm	-11.9323
▁reversal	-11.9324
▁vene	-11.9325
kkd	-11.9326
▁deliveries	-11.9326
▁commuter	-11.9326
▁shocking	-11.9327
▁michelin	-11.9327
verish	-11.9328
▁barca	-11.9328
▁examination	-11.933
▁thriller	-11.933
▁$2.5	-11.9334
▁yourself	-11.9336
aib	-11.9337
▁guides	-11.9338
▁unleash	-11.934
ada	-11.9341
▁06	-11.9342
▁prevention	-11.9343
▁intercepted	-11.9349
▁serbian	-11.935
▁passports	-11.9351
▁antarctica	-11.9354
▁inks	-11.9356
vy	-11.9357
▁improperly	-11.9361
▁prop	-11.9361
▁resembl	-11.9368
▁herat	-11.9368
▁dub	-11.9369
▁finest	-11.9369
▁jel	-11.9374
▁dinosaurs	-11.9377
▁acer	-11.9377
▁colon	-11.9378
▁alh	-11.9378
filled	-11.9379
nascent	-11.938
▁porter	-11.9384
▁25000	-11.9386
▁pub	-11.9388
▁revelations	-11.9389
▁gem	-11.939
▁1986	-11.9392
▁unh	-11.9393
▁terminal	-11.9395
▁filipino	-11.9395
▁swimmer	-11.9396
▁boast	-11.9397
▁lloyd	-11.9397
aug	-11.9398
▁suv	-11.94
▁pockets	-11.9401
▁6.0	-11.9404
nine	-11.9407
▁egg	-11.9409
▁restricted	-11.9412
▁hare	-11.9414
▁fairly	-11.9415
▁deadlocked	-11.9416
▁duck	-11.9418
▁probable	-11.9425
▁figured	-11.9427
▁brewing	-11.9428
▁wheels	-11.9429
▁floated	-11.9429
cm	-11.9431
quari	-11.9442
▁briefing	-11.9446
▁populations	-11.9451
165	-11.9463
▁peres	-11.9466
▁newton	-11.9468
oni	-11.9471
sec	-11.9471
▁boats	-11.9471
▁menu	-11.9472
indian	-11.9477
his	-11.9482
▁narrows	-11.9483
▁tent	-11.9485
▁vari	-11.9493
▁voices	-11.9495
▁explained	-11.95
▁cio	-11.9502
▁favorites	-11.9504
▁113	-11.9507
▁apologizes	-11.9512
▁ipods	-11.9513
last	-11.9516
▁apologize	-11.9516
▁honors	-11.952
▁$450	-11.9524
▁govern	-11.9524
▁signall	-11.9524
▁8000	-11.9534
▁obstacles	-11.9537
▁aces	-11.9541
▁mau	-11.9542
define	-11.955
plague	-11.9551
competitive	-11.9551
hewlett	-11.9551
ditch	-11.9552
grove	-11.9552
shift	-11.9552
bush	-11.9552
▁refunds	-11.9553
delta	-11.9553
gel	-11.9555
▁persia	-11.9555
voice	-11.9555
good	-11.9557
▁telco	-11.9558
riot	-11.9561
▁traveled	-11.9561
▁trader	-11.9562
▁sigh	-11.957
▁italia	-11.9574
wave	-11.9575
▁lied	-11.9577
57	-11.9578
▁snub	-11.9578
▁louise	-11.9581
▁inaugurate	-11.9583
-27	-11.9587
nia	-11.9588
▁smuggle	-11.9589
▁anchor	-11.9589
▁alzheimer	-11.9589
▁anonymity	-11.9589
▁camcorder	-11.9589
▁catalyst	-11.9589
▁circumstances	-11.9589
▁diabetes	-11.9589
▁dravid	-11.9589
▁emphatic	-11.9589
▁entitled	-11.9589
▁episode	-11.9589
▁fugitive	-11.9589
▁ivorian	-11.9589
▁kendall	-11.9589
▁larkin	-11.9589
▁leverkusen	-11.9589
▁lincoln	-11.9589
▁matsui	-11.9589
▁raleigh	-11.9589
▁recognise	-11.9589
▁saboteurs	-11.9589
▁schalke	-11.9589
▁terdiman	-11.9589
▁turnpike	-11.9589
▁alpine	-11.9589
▁miserable	-11.9589
▁unified	-11.9589
▁mercedes	-11.9589
▁unharmed	-11.9589
▁judging	-11.9589
▁sacred	-11.9589
▁nader	-11.9589
▁ailment	-11.9589
▁freight	-11.9589
▁riggs	-11.9589
▁mizu	-11.9589
▁verbal	-11.9589
▁marbury	-11.959
▁nlcs	-11.959
▁liability	-11.959
ampling	-11.959
▁contentguard	-11.959
▁photoshop	-11.959
▁$9.2	-11.959
▁jiri	-11.9591
▁anybody	-11.9591
▁mosley	-11.9591
▁$7.4	-11.9591
▁restatement	-11.9591
▁establishment	-11.9592
▁monza	-11.9592
▁goodwill	-11.9592
▁marry	-11.9593
▁wheaton	-11.9593
▁rewrite	-11.9595
klm	-11.9596
▁jabal	-11.9596
▁portis	-11.9596
▁editors	-11.9597
▁catche	-11.9597
▁28000	-11.9598
▁holland	-11.9598
▁outdoor	-11.9599
▁infonet	-11.9599
▁zdnet	-11.9599
▁claw	-11.9601
▁gravity	-11.9601
▁protestant	-11.9605
▁cro	-11.9606
▁expired	-11.961
▁procedures	-11.9612
tie	-11.9613
▁pep	-11.9613
▁grants	-11.9614
imf	-11.9615
▁91	-11.9616
▁midland	-11.9617
▁loosen	-11.9621
▁7.2	-11.9621
▁nomar	-11.9624
▁analog	-11.9624
▁combin	-11.9625
wto	-11.9626
▁logo	-11.9626
▁shah	-11.9627
cation	-11.963
▁permanently	-11.9631
▁lenn	-11.9633
▁legislators	-11.9635
minded	-11.9636
▁wag	-11.9637
▁memos	-11.9637
▁buzzer	-11.9638
that	-11.9639
▁judo	-11.9644
▁tenth	-11.9645
khin	-11.9648
▁amman	-11.965
▁forged	-11.965
ili	-11.9652
▁rigging	-11.9662
▁stalls	-11.9667
▁tun	-11.9671
▁pattern	-11.9674
▁weary	-11.9675
▁transistor	-11.9677
▁sche	-11.9682
▁suggestion	-11.9683
▁prayer	-11.9688
08	-11.9696
▁tremors	-11.9699
▁motive	-11.9708
oven	-11.9711
21	-11.9713
▁125	-11.9714
▁databases	-11.9715
▁ruth	-11.9724
rad	-11.9725
▁coordinate	-11.9725
▁320	-11.9736
▁clan	-11.9744
takers	-11.9747
▁rode	-11.9748
▁healthday	-11.9748
sian	-11.9748
stage	-11.9753
▁quadruple	-11.9759
tron	-11.9759
cade	-11.976
▁bori	-11.9762
▁positioning	-11.9765
labs	-11.9769
▁russ	-11.9774
▁230	-11.9777
rv	-11.9788
▁33-	-11.9795
chester	-11.9795
▁coo	-11.9797
▁teach	-11.98
61	-11.9807
▁yard	-11.9813
seven	-11.9818
pointers	-11.9821
operation	-11.9823
pd	-11.9824
megapixel	-11.9828
swappers	-11.9828
nokia	-11.9829
▁fulfill	-11.983
risk	-11.9831
bird	-11.9831
medal	-11.9832
▁flowing	-11.9832
stakes	-11.9835
▁muscles	-11.9838
runner	-11.9838
▁contra	-11.984
▁photographers	-11.9841
▁bottl	-11.9845
▁provinces	-11.9848
lcd	-11.9851
▁actual	-11.9855
▁assistants	-11.9858
zone	-11.9859
▁careful	-11.9865
▁kirk	-11.9866
▁irregular	-11.9867
▁artisan	-11.9867
▁cancellation	-11.9867
▁communicate	-11.9867
▁cosmonaut	-11.9867
▁elaborate	-11.9867
▁embassies	-11.9867
▁enormous	-11.9867
▁genentech	-11.9867
▁inactive	-11.9867
▁literature	-11.9867
▁marseille	-11.9867
▁mcnealy	-11.9867
▁neglect	-11.9867
▁ogden	-11.9867
▁peirsol	-11.9867
▁perspective	-11.9867
▁remnants	-11.9867
▁stubborn	-11.9867
▁swallow	-11.9867
▁unacceptable	-11.9867
▁varitek	-11.9867
▁bextra	-11.9867
▁cnnfn	-11.9867
▁jenin	-11.9867
▁namibia	-11.9867
▁triathlon	-11.9867
▁alamos	-11.9867
▁bacteria	-11.9867
▁1993	-11.9867
▁malaria	-11.9867
▁vacancy	-11.9867
▁cardiov	-11.9867
▁pdf	-11.9867
▁bladecenter	-11.9867
▁slogan	-11.9867
▁magna	-11.9867
▁kewell	-11.9868
▁hurry	-11.9868
▁demise	-11.9868
▁curry	-11.9868
▁easyjet	-11.9868
▁consum	-11.9868
▁merit	-11.9868
▁scoreboard	-11.9868
▁depression	-11.9868
▁random	-11.9869
conscious	-11.9869
▁distraction	-11.9869
▁regiment	-11.9869
▁appreciate	-11.987
▁gripp	-11.987
▁braze	-11.987
▁$320	-11.9871
▁cholesterol	-11.9871
▁kbr	-11.9871
▁scour	-11.9871
▁clout	-11.9871
▁waterford	-11.9871
▁7-0	-11.9871
▁textiles	-11.9871
▁compatibility	-11.9872
▁georgetown	-11.9872
▁uae	-11.9872
▁mtv	-11.9872
▁flatten	-11.9872
▁chronicle	-11.9873
▁marad	-11.9873
▁holyfield	-11.9873
oz	-11.9873
▁2.6	-11.9873
▁outspoken	-11.9873
loaded	-11.9874
▁owed	-11.9875
▁atlas	-11.9876
▁zee	-11.9879
▁madden	-11.988
▁tainted	-11.988
▁umass	-11.9882
▁vpn	-11.9882
▁fightback	-11.9883
dec	-11.9884
▁maps	-11.9886
▁bumpy	-11.9887
▁ringers	-11.9892
▁descended	-11.9892
▁idf	-11.9893
mil	-11.9895
▁logging	-11.9895
▁overwhelmed	-11.9895
▁newmont	-11.9896
▁joel	-11.9896
ulmer	-11.9897
▁pearl	-11.9898
▁demonstrations	-11.9901
kyodo	-11.9902
usan	-11.991
▁budd	-11.991
▁sooner	-11.9912
▁nominate	-11.9914
▁flop	-11.9915
▁observ	-11.9916
▁taxpayers	-11.9919
▁stirring	-11.9921
▁mentioned	-11.9931
▁grenades	-11.9932
▁suspicions	-11.9938
▁expression	-11.9943
▁decrease	-11.9945
▁institution	-11.9946
ister	-11.9948
gold	-11.9951
liant	-11.9952
▁jackets	-11.9952
▁authorized	-11.9953
▁seasonal	-11.9954
▁edu	-11.9955
▁populat	-11.9957
▁$2.2	-11.9959
▁detainee	-11.9962
path	-11.9965
▁handhelds	-11.9967
▁sacking	-11.9972
▁regularly	-11.9973
▁captives	-11.9978
▁mum	-11.9981
▁campaigners	-11.9984
▁organiser	-11.9991
▁scorer	-11.9994
▁hay	-11.9994
▁peg	-11.9995
▁deserves	-11.9997
▁bits	-11.9998
▁enforce	-12
▁wed	-12.0002
super	-12.0003
▁orton	-12.0006
▁pharmac	-12.0007
▁surrendered	-12.0011
▁fab	-12.0011
daunte	-12.0019
▁withstand	-12.0026
▁discusse	-12.0035
▁creators	-12.0036
▁premiere	-12.0036
▁intentions	-12.0038
shing	-12.0042
▁inform	-12.005
▁bows	-12.0052
▁03	-12.0052
▁nova	-12.0053
tung	-12.0053
▁booking	-12.0064
▁contacted	-12.0066
▁symbolic	-12.0067
▁qua	-12.0071
fort	-12.0072
▁outsource	-12.0074
▁outage	-12.0079
▁olive	-12.008
oq	-12.008
▁rages	-12.0087
▁fractur	-12.0099
nnes	-12.0103
▁cooler	-12.0104
environmentalist	-12.0105
▁opinions	-12.0106
▁uncover	-12.011
▁congratulat	-12.011
built	-12.0112
▁patri	-12.0112
▁lords	-12.0112
▁generat	-12.0114
technology	-12.0114
uairq	-12.0115
liverpool	-12.0115
office	-12.0115
industry	-12.0115
▁dynam	-12.0115
japanese	-12.0115
▁monte	-12.0116
word	-12.0116
about	-12.0116
double	-12.0117
zu	-12.0117
agged	-12.0125
border	-12.0129
highest	-12.0131
ically	-12.0136
kar	-12.0139
▁brune	-12.0143
▁comic	-12.0145
▁bn	-12.0147
▁expose	-12.0152
▁rica	-12.0152
▁aggravat	-12.0153
▁aragones	-12.0153
▁berkshire	-12.0153
▁engulf	-12.0153
▁facilitate	-12.0153
▁gainesville	-12.0153
▁grozny	-12.0153
▁lahoud	-12.0153
▁lopez	-12.0153
▁pasadena	-12.0153
▁reservist	-12.0153
▁strategist	-12.0153
▁ultrasparc	-12.0153
▁unilateral	-12.0153
▁wreak	-12.0153
▁flirt	-12.0153
▁fresno	-12.0153
▁sprawl	-12.0153
▁subsidiaries	-12.0153
▁twel	-12.0153
▁yale	-12.0153
▁sterling	-12.0153
▁albion	-12.0153
▁wendy	-12.0153
▁kilometres	-12.0153
▁envision	-12.0153
▁recep	-12.0153
▁harare	-12.0153
▁bellhorn	-12.0153
▁epson	-12.0153
▁helmet	-12.0153
▁skirt	-12.0154
▁bald	-12.0154
▁meltdown	-12.0154
incke	-12.0154
▁perception	-12.0154
▁heartbeat	-12.0154
▁snapshot	-12.0154
▁putnam	-12.0154
▁27-24	-12.0154
▁terrible	-12.0155
▁mature	-12.0155
▁mercenaries	-12.0155
▁clearance	-12.0157
step	-12.0158
▁stave	-12.0159
▁nichol	-12.016
hak	-12.0161
▁crawl	-12.0162
▁reinforc	-12.0163
▁sniff	-12.0165
▁sedan	-12.0166
▁kost	-12.0169
▁$8.6	-12.0171
▁personality	-12.0171
▁martia	-12.0174
▁whipp	-12.0174
▁greatly	-12.0175
▁graphic	-12.0175
▁alders	-12.0184
date	-12.0186
▁blacks	-12.0187
▁converg	-12.0196
▁banco	-12.0198
▁hardest	-12.0198
91	-12.0199
▁extract	-12.0201
▁chanting	-12.0205
▁exclusively	-12.0205
fre	-12.0205
▁rebounding	-12.0206
▁windies	-12.0206
▁infamous	-12.0207
ryl	-12.021
▁prizes	-12.0211
abo	-12.0216
tick	-12.0217
▁trips	-12.0223
▁dover	-12.0224
▁spit	-12.0224
▁rated	-12.0224
vid	-12.0225
▁pairing	-12.0225
▁stifle	-12.0234
▁robbed	-12.0239
▁skipp	-12.0242
-15	-12.0242
▁doj	-12.0248
▁fist	-12.025
▁cruises	-12.0252
▁stealth	-12.0252
▁infection	-12.0255
▁recogniz	-12.0255
▁warrior	-12.0256
▁valu	-12.0258
▁kon	-12.026
▁commissions	-12.0262
▁christ	-12.0265
▁seas	-12.0265
stitution	-12.0267
▁annu	-12.0268
▁widening	-12.0272
hk	-12.0275
▁emotions	-12.0276
▁premiums	-12.0279
▁manu	-12.0281
rum	-12.0283
▁antidepressants	-12.0286
▁bragg	-12.0289
mates	-12.029
haq	-12.0293
▁entice	-12.0294
▁marco	-12.0297
▁arth	-12.03
▁lav	-12.0301
acio	-12.0305
eau	-12.0313
position	-12.0317
▁6.5	-12.032
▁languages	-12.0321
▁mack	-12.0322
▁tournaments	-12.0323
▁pluck	-12.0324
▁sleeping	-12.0325
▁$27	-12.0334
▁barriers	-12.0335
▁carr	-12.0335
▁fleeing	-12.0337
▁rats	-12.0341
▁vaccines	-12.0342
lvin	-12.0342
▁someday	-12.0344
pf	-12.0347
▁meter	-12.0349
▁broadcasts	-12.0358
▁vp	-12.0358
▁taunt	-12.036
▁dumps	-12.0363
▁stifl	-12.0364
▁goss	-12.037
after	-12.0372
▁$1.7	-12.0381
ological	-12.0383
▁sci	-12.0386
tar	-12.0393
▁outlast	-12.0394
▁gears	-12.0397
▁dispatch	-12.0398
macho	-12.0406
code	-12.0407
major	-12.0408
newcastle	-12.0409
which	-12.0409
cisco	-12.0409
ticket	-12.0409
▁pla	-12.041
hpq	-12.0411
coach	-12.0412
fnm	-12.0412
nke	-12.0415
▁commons	-12.0423
▁longhorns	-12.0425
▁rp	-12.0426
gas	-12.0428
▁concede	-12.0429
▁airplanes	-12.0431
▁166	-12.0433
▁reinforce	-12.0436
▁interceptions	-12.0436
▁ronald	-12.0437
aria	-12.0441
▁rus	-12.0442
▁rat	-12.0442
cision	-12.0446
▁convictions	-12.0446
▁parcel	-12.0447
▁adequate	-12.0447
▁anglican	-12.0447
▁apprentice	-12.0447
▁basayev	-12.0447
▁cardiac	-12.0447
▁citibank	-12.0447
▁erickson	-12.0447
▁hotspur	-12.0447
▁intensity	-12.0447
▁karmazin	-12.0447
▁leicester	-12.0447
▁mammal	-12.0447
▁mclaren	-12.0447
▁moroccan	-12.0447
▁schwartz	-12.0447
▁skeleton	-12.0447
▁vizquel	-12.0447
▁flesh	-12.0447
▁reckon	-12.0447
▁affirm	-12.0447
▁leiter	-12.0447
▁refinery	-12.0447
▁savage	-12.0447
▁territoria	-12.0447
▁partisan	-12.0447
▁hindu	-12.0447
▁leander	-12.0447
▁blunder	-12.0447
▁oprah	-12.0447
▁badgers	-12.0447
▁consent	-12.0447
▁prudential	-12.0447
▁masterpiece	-12.0447
▁wisdom	-12.0447
▁presum	-12.0447
▁sovereignty	-12.0447
▁biology	-12.0447
▁norwich	-12.0447
▁casualty	-12.0447
▁hamburg	-12.0447
▁wagner	-12.0447
▁canyon	-12.0447
▁nadal	-12.0447
▁neil	-12.0447
▁manipulation	-12.0447
▁addiction	-12.0447
▁cannon	-12.0447
▁schoolgirl	-12.0448
▁ladies	-12.0448
▁sperm	-12.0448
▁foothold	-12.0448
▁harvest	-12.0448
▁exposure	-12.0448
▁dictatorship	-12.0448
▁pinpoint	-12.0448
▁slur	-12.0448
delson	-12.0449
▁ramsey	-12.0449
▁rethink	-12.0449
▁hyatt	-12.0449
▁adware	-12.045
tsu	-12.045
▁brunei	-12.045
▁tallest	-12.045
▁roberts	-12.0451
▁redesign	-12.0451
▁shutdown	-12.0451
▁misled	-12.0451
▁acid	-12.0451
▁backlash	-12.0452
▁tribe	-12.0452
▁lull	-12.0452
▁1960	-12.0452
▁widow	-12.0454
▁hydro	-12.0455
▁martyn	-12.0455
▁restraint	-12.0455
▁spaceflight	-12.0456
▁freescale	-12.046
▁zoom	-12.0462
▁jeb	-12.0464
▁skeptics	-12.0467
▁300000	-12.0469
▁zimbabwean	-12.047
▁cracking	-12.047
claud	-12.0471
▁enjoys	-12.0471
napping	-12.0472
▁xi	-12.0473
▁panathinaikos	-12.0479
arah	-12.0486
▁brighter	-12.0487
▁epa	-12.0489
▁swappers	-12.049
▁planner	-12.0491
05	-12.0494
▁swamped	-12.0494
▁attribut	-12.0495
▁550	-12.0504
▁blessing	-12.0504
▁tilt	-12.0505
▁looting	-12.0506
▁deported	-12.0508
shape	-12.0509
▁warmer	-12.0513
▁teaching	-12.0514
▁compromised	-12.0516
▁01	-12.0517
▁youngsters	-12.052
▁ashore	-12.052
ius	-12.0522
▁86-	-12.0522
cia	-12.0523
▁stranger	-12.0525
▁serial	-12.0526
▁orbiter	-12.0527
▁myth	-12.0529
pad	-12.054
▁swan	-12.0541
▁dod	-12.0553
▁$80	-12.0553
▁mode	-12.0555
▁geek	-12.0556
▁thrashing	-12.0558
▁maverick	-12.0559
▁economist	-12.0559
▁instrument	-12.0559
▁migrants	-12.0561
▁telescopes	-12.0561
▁guest	-12.0562
▁cafe	-12.0562
▁jd	-12.0572
▁addressed	-12.0573
▁experiences	-12.0577
▁organizer	-12.0578
▁stoke	-12.058
anna	-12.0584
▁wallet	-12.0584
▁rewarded	-12.0587
▁legg	-12.0594
▁pumped	-12.0595
ester	-12.0596
▁leon	-12.0597
▁uni	-12.0602
▁$210	-12.0614
▁dont	-12.0617
▁cott	-12.0619
▁29-	-12.0623
▁crippl	-12.0627
▁48-	-12.0632
▁directions	-12.0636
▁roaring	-12.0644
▁colleges	-12.0648
armed	-12.0651
ccu	-12.0653
▁charts	-12.0653
▁transistors	-12.0656
▁merc	-12.0658
▁fre	-12.0658
lot	-12.0663
leaning	-12.0665
▁elud	-12.0672
▁leverage	-12.0672
▁wilt	-12.0672
▁jasc	-12.0673
▁balls	-12.0673
lich	-12.0674
find	-12.0675
▁grabbing	-12.0677
▁trace	-12.0677
▁endure	-12.0677
▁sanction	-12.0678
▁golfers	-12.0682
▁chang	-12.0689
▁concludes	-12.0695
▁daughters	-12.0696
▁ensur	-12.0697
▁airstrikes	-12.0697
▁oceans	-12.07
▁seo	-12.0701
▁rebuff	-12.0701
empti	-12.0701
▁swamp	-12.0701
▁rower	-12.0702
stamp	-12.0703
olo	-12.0707
▁realm	-12.0708
▁tankers	-12.0708
lena	-12.0711
via	-12.0712
continental	-12.0712
again	-12.0712
lei	-12.0713
▁penne	-12.0718
onymous	-12.0719
block	-12.0722
▁poet	-12.0729
▁min	-12.073
▁nerves	-12.0733
dot	-12.0735
▁accurate	-12.0736
▁dirt	-12.0738
users	-12.074
▁agricultur	-12.074
▁contradict	-12.0744
optic	-12.0745
▁wilkins	-12.0746
▁sponsors	-12.0747
roscopic	-12.0747
▁pepsi	-12.0748
▁auxerre	-12.075
▁mushroom	-12.075
specified	-12.075
▁anxiety	-12.075
▁appropriate	-12.075
▁clarify	-12.075
▁clobber	-12.075
▁confederation	-12.075
▁debacle	-12.075
▁exodus	-12.075
▁forfeit	-12.075
▁guzman	-12.075
▁jukebox	-12.075
▁klinsmann	-12.075
▁koskie	-12.075
▁ljubi	-12.075
▁mccaw	-12.075
▁mcleish	-12.075
▁mukesh	-12.075
▁pesticide	-12.075
▁phrase	-12.075
▁physicist	-12.075
▁prefecture	-12.075
▁qualification	-12.075
▁recession	-12.075
▁subsidy	-12.075
▁sunnyvale	-12.075
▁suzuka	-12.075
▁swainson	-12.075
▁tumbling	-12.075
▁tumult	-12.075
▁dispel	-12.075
▁huddle	-12.075
▁mussina	-12.075
▁extent	-12.075
▁plunging	-12.075
▁algae	-12.075
▁mohammed	-12.075
▁lucas	-12.075
▁irritat	-12.075
▁bicycle	-12.075
▁gerald	-12.075
▁epstein	-12.075
▁chemistry	-12.075
▁irregularities	-12.075
▁nanny	-12.075
▁harrah	-12.075
▁whisk	-12.075
▁betrusted	-12.075
▁swipe	-12.075
▁cocoa	-12.075
▁grouse	-12.075
▁eject	-12.075
▁defiance	-12.075
▁cybercrime	-12.075
▁hardline	-12.075
▁rochester	-12.075
▁fleetboston	-12.075
▁url	-12.075
▁worsening	-12.075
▁webcam	-12.075
▁nordic	-12.0751
▁disband	-12.0751
moltz	-12.0751
▁mobility	-12.0751
▁ahern	-12.0751
▁phishers	-12.0751
[...]
